{
  "version": "1.0",
  "truncation": {
    "direction": "Right",
    "max_length": 512,
    "strategy": "LongestFirst",
    "stride": 0
  },
  "padding": {
    "strategy": {
      "Fixed": 512
    },
    "direction": "Right",
    "pad_to_multiple_of": null,
    "pad_id": 0,
    "pad_type_id": 0,
    "pad_token": "<PAD>"
  },
  "added_tokens": [
    {
      "id": 0,
      "content": "<PAD>",
      "single_word": false,
      "lstrip": false,
      "rstrip": false,
      "normalized": false,
      "special": true
    },
    {
      "id": 1,
      "content": "<UNK>",
      "single_word": false,
      "lstrip": false,
      "rstrip": false,
      "normalized": false,
      "special": true
    },
    {
      "id": 2,
      "content": "<BOS>",
      "single_word": false,
      "lstrip": false,
      "rstrip": false,
      "normalized": false,
      "special": true
    },
    {
      "id": 3,
      "content": "<EOS>",
      "single_word": false,
      "lstrip": false,
      "rstrip": false,
      "normalized": false,
      "special": true
    }
  ],
  "normalizer": null,
  "pre_tokenizer": {
    "type": "Whitespace"
  },
  "post_processor": {
    "type": "TemplateProcessing",
    "single": [
      {
        "SpecialToken": {
          "id": "<BOS>",
          "type_id": 0
        }
      },
      {
        "Sequence": {
          "id": "A",
          "type_id": 0
        }
      },
      {
        "SpecialToken": {
          "id": "<EOS>",
          "type_id": 0
        }
      }
    ],
    "pair": [
      {
        "Sequence": {
          "id": "A",
          "type_id": 0
        }
      },
      {
        "Sequence": {
          "id": "B",
          "type_id": 1
        }
      }
    ],
    "special_tokens": {
      "<BOS>": {
        "id": "<BOS>",
        "ids": [
          2
        ],
        "tokens": [
          "<BOS>"
        ]
      },
      "<EOS>": {
        "id": "<EOS>",
        "ids": [
          3
        ],
        "tokens": [
          "<EOS>"
        ]
      }
    }
  },
  "decoder": null,
  "model": {
    "type": "BPE",
    "dropout": null,
    "unk_token": "<UNK>",
    "continuing_subword_prefix": null,
    "end_of_word_suffix": null,
    "fuse_unk": false,
    "byte_fallback": false,
    "ignore_merges": false,
    "vocab": {
      "<PAD>": 0,
      "<UNK>": 1,
      "<BOS>": 2,
      "<EOS>": 3,
      "!": 4,
      "\"": 5,
      "#": 6,
      "$": 7,
      "%": 8,
      "&": 9,
      "'": 10,
      "(": 11,
      ")": 12,
      "*": 13,
      "+": 14,
      ",": 15,
      "-": 16,
      ".": 17,
      "/": 18,
      "0": 19,
      "1": 20,
      "2": 21,
      "3": 22,
      "4": 23,
      "5": 24,
      "6": 25,
      "7": 26,
      "8": 27,
      "9": 28,
      ":": 29,
      ";": 30,
      "<": 31,
      "=": 32,
      ">": 33,
      "?": 34,
      "@": 35,
      "[": 36,
      "\\": 37,
      "]": 38,
      "^": 39,
      "_": 40,
      "`": 41,
      "a": 42,
      "b": 43,
      "c": 44,
      "d": 45,
      "e": 46,
      "f": 47,
      "g": 48,
      "h": 49,
      "i": 50,
      "j": 51,
      "k": 52,
      "l": 53,
      "m": 54,
      "n": 55,
      "o": 56,
      "p": 57,
      "q": 58,
      "r": 59,
      "s": 60,
      "t": 61,
      "u": 62,
      "v": 63,
      "w": 64,
      "x": 65,
      "y": 66,
      "z": 67,
      "{": 68,
      "|": 69,
      "}": 70,
      "~": 71,
      "¡": 72,
      "£": 73,
      "¦": 74,
      "©": 75,
      "«": 76,
      "¬": 77,
      "¯": 78,
      "°": 79,
      "²": 80,
      "´": 81,
      "·": 82,
      "»": 83,
      "ß": 84,
      "á": 85,
      "æ": 86,
      "ç": 87,
      "è": 88,
      "é": 89,
      "í": 90,
      "ï": 91,
      "ñ": 92,
      "ò": 93,
      "ó": 94,
      "ø": 95,
      "ú": 96,
      "û": 97,
      "ā": 98,
      "ą": 99,
      "ē": 100,
      "ī": 101,
      "ı": 102,
      "ň": 103,
      "œ": 104,
      "ǝ": 105,
      "ɐ": 106,
      "ə": 107,
      "ɢ": 108,
      "ɪ": 109,
      "ɴ": 110,
      "ɹ": 111,
      "ʌ": 112,
      "ʍ": 113,
      "ʖ": 114,
      "ʜ": 115,
      "ˈ": 116,
      "̕": 117,
      "̖": 118,
      "̗": 119,
      "̘": 120,
      "̙": 121,
      "̜": 122,
      "̝": 123,
      "̞": 124,
      "̟": 125,
      "̠": 126,
      "̢": 127,
      "̣": 128,
      "̤": 129,
      "̥": 130,
      "̦": 131,
      "̧": 132,
      "̨": 133,
      "̪": 134,
      "̫": 135,
      "̬": 136,
      "̭": 137,
      "̮": 138,
      "̯": 139,
      "̰": 140,
      "̱": 141,
      "̲": 142,
      "̳": 143,
      "̶": 144,
      "̷": 145,
      "̹": 146,
      "̺": 147,
      "̻": 148,
      "̼": 149,
      "ͅ": 150,
      "͈": 151,
      "͍": 152,
      "͎": 153,
      "͏": 154,
      "͓": 155,
      "͔": 156,
      "͕": 157,
      "͖": 158,
      "͘": 159,
      "͙": 160,
      "͚": 161,
      "͜": 162,
      "͝": 163,
      "͞": 164,
      "͟": 165,
      "͠": 166,
      "͡": 167,
      "͢": 168,
      "δ": 169,
      "ω": 170,
      "я": 171,
      "א": 172,
      "ג": 173,
      "ו": 174,
      "י": 175,
      "ל": 176,
      "ן": 177,
      "׳": 178,
      "ᴀ": 179,
      "ᴅ": 180,
      "ᴇ": 181,
      "ᴍ": 182,
      "ᴏ": 183,
      "ᴛ": 184,
      "ᴜ": 185,
      "ᴡ": 186,
      "‍": 187,
      "–": 188,
      "—": 189,
      "‘": 190,
      "’": 191,
      "“": 192,
      "”": 193,
      "„": 194,
      "•": 195,
      "…": 196,
      "‪": 197,
      "‬": 198,
      "‽": 199,
      "€": 200,
      "™": 201,
      "√": 202,
      "≈": 203,
      "≠": 204,
      "▀": 205,
      "▫": 206,
      "☁": 207,
      "☆": 208,
      "☕": 209,
      "☝": 210,
      "☠": 211,
      "☹": 212,
      "☺": 213,
      "♀": 214,
      "♂": 215,
      "♡": 216,
      "♥": 217,
      "♪": 218,
      "♫": 219,
      "♭": 220,
      "♾": 221,
      "♿": 222,
      "⚔": 223,
      "⚡": 224,
      "⚰": 225,
      "⛏": 226,
      "⛑": 227,
      "✊": 228,
      "✋": 229,
      "✌": 230,
      "✔": 231,
      "✨": 232,
      "❄": 233,
      "❣": 234,
      "❤": 235,
      "⠀": 236,
      "⠁": 237,
      "⠃": 238,
      "⠄": 239,
      "⠇": 240,
      "⠈": 241,
      "⠉": 242,
      "⠊": 243,
      "⠋": 244,
      "⠏": 245,
      "⠓": 246,
      "⠘": 247,
      "⠙": 248,
      "⠚": 249,
      "⠛": 250,
      "⠞": 251,
      "⠟": 252,
      "⠢": 253,
      "⠦": 254,
      "⠫": 255,
      "⠳": 256,
      "⠴": 257,
      "⠶": 258,
      "⠸": 259,
      "⠹": 260,
      "⠻": 261,
      "⠾": 262,
      "⠿": 263,
      "⡀": 264,
      "⡄": 265,
      "⡆": 266,
      "⡇": 267,
      "⡏": 268,
      "⡜": 269,
      "⡟": 270,
      "⡶": 271,
      "⡷": 272,
      "⡼": 273,
      "⡾": 274,
      "⡿": 275,
      "⢀": 276,
      "⢠": 277,
      "⢣": 278,
      "⢤": 279,
      "⢧": 280,
      "⢰": 281,
      "⢸": 282,
      "⢹": 283,
      "⢻": 284,
      "⢿": 285,
      "⣀": 286,
      "⣄": 287,
      "⣆": 288,
      "⣇": 289,
      "⣕": 290,
      "⣘": 291,
      "⣠": 292,
      "⣤": 293,
      "⣦": 294,
      "⣧": 295,
      "⣴": 296,
      "⣶": 297,
      "⣷": 298,
      "⣹": 299,
      "⣻": 300,
      "⣼": 301,
      "⣾": 302,
      "⣿": 303,
      "⬆": 304,
      "⭐": 305,
      "⭕": 306,
      "゜": 307,
      "ツ": 308,
      "ノ": 309,
      "中": 310,
      "么": 311,
      "人": 312,
      "什": 313,
      "你": 314,
      "做": 315,
      "加": 316,
      "国": 317,
      "在": 318,
      "情": 319,
      "查": 320,
      "油": 321,
      "清": 322,
      "玛": 323,
      "雅": 324,
      "개": 325,
      "니": 326,
      "면": 327,
      "무": 328,
      "발": 329,
      "병": 330,
      "억": 331,
      "인": 332,
      "청": 333,
      "카": 334,
      "허": 335,
      "️": 336,
      "！": 337,
      "？": 338,
      "･": 339,
      "ﾉ": 340,
      "🅱": 341,
      "🇦": 342,
      "🇨": 343,
      "🇫": 344,
      "🇭": 345,
      "🇲": 346,
      "🇵": 347,
      "🇷": 348,
      "🇸": 349,
      "🇹": 350,
      "🇺": 351,
      "🌈": 352,
      "🌊": 353,
      "🌟": 354,
      "🌱": 355,
      "🌹": 356,
      "🌿": 357,
      "🍀": 358,
      "🍁": 359,
      "🍆": 360,
      "🍍": 361,
      "🍑": 362,
      "🍕": 363,
      "🍧": 364,
      "🍩": 365,
      "🍭": 366,
      "🍰": 367,
      "🍺": 368,
      "🍻": 369,
      "🍾": 370,
      "🍿": 371,
      "🎁": 372,
      "🎂": 373,
      "🎈": 374,
      "🎉": 375,
      "🎏": 376,
      "🎖": 377,
      "🎵": 378,
      "🎶": 379,
      "🎾": 380,
      "🏈": 381,
      "🏊": 382,
      "🏭": 383,
      "🏳": 384,
      "🏻": 385,
      "🏼": 386,
      "🏽": 387,
      "🏾": 388,
      "🏿": 389,
      "🐃": 390,
      "🐇": 391,
      "🐊": 392,
      "🐕": 393,
      "🐢": 394,
      "👀": 395,
      "👁": 396,
      "👅": 397,
      "👇": 398,
      "👉": 399,
      "👊": 400,
      "👋": 401,
      "👌": 402,
      "👍": 403,
      "👎": 404,
      "👏": 405,
      "👐": 406,
      "👑": 407,
      "👓": 408,
      "👨": 409,
      "👩": 410,
      "👱": 411,
      "👲": 412,
      "👴": 413,
      "👶": 414,
      "👸": 415,
      "👹": 416,
      "👻": 417,
      "💀": 418,
      "💁": 419,
      "💃": 420,
      "💄": 421,
      "💅": 422,
      "💆": 423,
      "💋": 424,
      "💍": 425,
      "💎": 426,
      "💓": 427,
      "💔": 428,
      "💕": 429,
      "💖": 430,
      "💗": 431,
      "💙": 432,
      "💚": 433,
      "💛": 434,
      "💜": 435,
      "💡": 436,
      "💥": 437,
      "💦": 438,
      "💨": 439,
      "💩": 440,
      "💪": 441,
      "💭": 442,
      "💯": 443,
      "💰": 444,
      "💲": 445,
      "💸": 446,
      "📚": 447,
      "📰": 448,
      "🔑": 449,
      "🔥": 450,
      "🔪": 451,
      "🕺": 452,
      "🖐": 453,
      "🖕": 454,
      "🖖": 455,
      "🖤": 456,
      "🖥": 457,
      "🗑": 458,
      "🗿": 459,
      "😀": 460,
      "😁": 461,
      "😂": 462,
      "😃": 463,
      "😄": 464,
      "😅": 465,
      "😆": 466,
      "😇": 467,
      "😉": 468,
      "😊": 469,
      "😋": 470,
      "😍": 471,
      "😎": 472,
      "😏": 473,
      "😐": 474,
      "😑": 475,
      "😒": 476,
      "😓": 477,
      "😔": 478,
      "😕": 479,
      "😖": 480,
      "😗": 481,
      "😘": 482,
      "😛": 483,
      "😜": 484,
      "😝": 485,
      "😞": 486,
      "😟": 487,
      "😠": 488,
      "😡": 489,
      "😢": 490,
      "😣": 491,
      "😤": 492,
      "😥": 493,
      "😦": 494,
      "😧": 495,
      "😨": 496,
      "😩": 497,
      "😪": 498,
      "😫": 499,
      "😬": 500,
      "😭": 501,
      "😮": 502,
      "😰": 503,
      "😱": 504,
      "😳": 505,
      "😴": 506,
      "😵": 507,
      "😶": 508,
      "😷": 509,
      "😹": 510,
      "😻": 511,
      "😾": 512,
      "😿": 513,
      "🙁": 514,
      "🙂": 515,
      "🙃": 516,
      "🙄": 517,
      "🙅": 518,
      "🙆": 519,
      "🙈": 520,
      "🙊": 521,
      "🙋": 522,
      "🙌": 523,
      "🙎": 524,
      "🙏": 525,
      "🚀": 526,
      "🚒": 527,
      "🚓": 528,
      "🚫": 529,
      "🛑": 530,
      "🛡": 531,
      "🤓": 532,
      "🤔": 533,
      "🤕": 534,
      "🤗": 535,
      "🤘": 536,
      "🤙": 537,
      "🤚": 538,
      "🤛": 539,
      "🤜": 540,
      "🤞": 541,
      "🤟": 542,
      "🤠": 543,
      "🤢": 544,
      "🤣": 545,
      "🤤": 546,
      "🤦": 547,
      "🤨": 548,
      "🤩": 549,
      "🤪": 550,
      "🤫": 551,
      "🤬": 552,
      "🤭": 553,
      "🤮": 554,
      "🤯": 555,
      "🤰": 556,
      "🤲": 557,
      "🤷": 558,
      "🥀": 559,
      "🥂": 560,
      "🥕": 561,
      "🥘": 562,
      "🥛": 563,
      "🥰": 564,
      "🥺": 565,
      "🦀": 566,
      "🦈": 567,
      "🦗": 568,
      "🦵": 569,
      "🧀": 570,
      "🧐": 571,
      "🧖": 572,
      "🧛": 573,
      "🧡": 574,
      "th": 575,
      "in": 576,
      "ou": 577,
      "re": 578,
      "an": 579,
      "is": 580,
      "the": 581,
      "at": 582,
      "me": 583,
      "on": 584,
      "er": 585,
      "ing": 586,
      "it": 587,
      "to": 588,
      "no": 589,
      "st": 590,
      "al": 591,
      "or": 592,
      "you": 593,
      "en": 594,
      "le": 595,
      "as": 596,
      "be": 597,
      "ve": 598,
      "se": 599,
      "not": 600,
      "he": 601,
      "ha": 602,
      "ly": 603,
      "and": 604,
      "ame": 605,
      "that": 606,
      "ar": 607,
      "ed": 608,
      "of": 609,
      "so": 610,
      "lo": 611,
      "name": 612,
      "es": 613,
      "do": 614,
      "wh": 615,
      "li": 616,
      "ay": 617,
      "are": 618,
      "for": 619,
      "ll": 620,
      "ke": 621,
      "am": 622,
      "this": 623,
      "ld": 624,
      "go": 625,
      "ac": 626,
      "wi": 627,
      "..": 628,
      "ic": 629,
      "id": 630,
      "ro": 631,
      "we": 632,
      "ad": 633,
      "ut": 634,
      "ho": 635,
      "gh": 636,
      "ver": 637,
      "ge": 638,
      "have": 639,
      "one": 640,
      "co": 641,
      "pe": 642,
      "ould": 643,
      "ti": 644,
      "ab": 645,
      "ri": 646,
      "un": 647,
      "out": 648,
      "ch": 649,
      "ust": 650,
      "was": 651,
      "my": 652,
      "mo": 653,
      "su": 654,
      "ne": 655,
      "but": 656,
      "po": 657,
      "ir": 658,
      "ally": 659,
      "de": 660,
      "fe": 661,
      "just": 662,
      "with": 663,
      "like": 664,
      "if": 665,
      "they": 666,
      "ght": 667,
      "ion": 668,
      "some": 669,
      "all": 670,
      "now": 671,
      "ter": 672,
      "your": 673,
      "can": 674,
      "than": 675,
      "op": 676,
      "what": 677,
      "ma": 678,
      "nt": 679,
      "te": 680,
      "thing": 681,
      "get": 682,
      "would": 683,
      "ce": 684,
      "od": 685,
      "ks": 686,
      "ye": 687,
      "tr": 688,
      "up": 689,
      "im": 690,
      "sh": 691,
      "pp": 692,
      "will": 693,
      "ant": 694,
      "use": 695,
      "ck": 696,
      "wor": 697,
      "ate": 698,
      "con": 699,
      "how": 700,
      "pl": 701,
      "any": 702,
      "...": 703,
      "ther": 704,
      "us": 705,
      "ex": 706,
      "ul": 707,
      "com": 708,
      "about": 709,
      "ok": 710,
      "way": 711,
      "very": 712,
      "love": 713,
      "ink": 714,
      "ca": 715,
      "ur": 716,
      "ag": 717,
      "ss": 718,
      "ople": 719,
      "people": 720,
      "end": 721,
      "pro": 722,
      "ers": 723,
      "see": 724,
      "ent": 725,
      "she": 726,
      "know": 727,
      "gu": 728,
      "did": 729,
      "ry": 730,
      "ind": 731,
      "good": 732,
      "act": 733,
      "time": 734,
      "el": 735,
      "there": 736,
      "il": 737,
      "think": 738,
      "bo": 739,
      "pre": 740,
      "ra": 741,
      "ill": 742,
      "ast": 743,
      "ment": 744,
      "here": 745,
      "!!": 746,
      "ist": 747,
      "rom": 748,
      "ation": 749,
      "art": 750,
      "more": 751,
      "from": 752,
      "ough": 753,
      "her": 754,
      "too": 755,
      "really": 756,
      "when": 757,
      "who": 758,
      "them": 759,
      "nd": 760,
      "ous": 761,
      "ta": 762,
      "man": 763,
      "uck": 764,
      "red": 765,
      "wo": 766,
      "ack": 767,
      "him": 768,
      "his": 769,
      "ble": 770,
      "ive": 771,
      "cause": 772,
      "ty": 773,
      "got": 774,
      "ev": 775,
      "wn": 776,
      "ah": 777,
      "ting": 778,
      "has": 779,
      "because": 780,
      "want": 781,
      "our": 782,
      "ig": 783,
      "fo": 784,
      "ound": 785,
      "ong": 786,
      "ide": 787,
      "day": 788,
      "sa": 789,
      "king": 790,
      "qu": 791,
      "per": 792,
      "ain": 793,
      "happ": 794,
      "every": 795,
      "der": 796,
      "sc": 797,
      "ite": 798,
      "does": 799,
      "feel": 800,
      "ct": 801,
      "right": 802,
      "going": 803,
      "ine": 804,
      "ep": 805,
      "lol": 806,
      "read": 807,
      "um": 808,
      "gre": 809,
      "other": 810,
      "thanks": 811,
      "oh": 812,
      "say": 813,
      "play": 814,
      "year": 815,
      "ice": 816,
      "tion": 817,
      "ie": 818,
      "had": 819,
      "har": 820,
      "by": 821,
      "mu": 822,
      "why": 823,
      "even": 824,
      "ight": 825,
      "fa": 826,
      "ts": 827,
      "ard": 828,
      "la": 829,
      "much": 830,
      "cannot": 831,
      "bet": 832,
      "only": 833,
      "their": 834,
      "look": 835,
      "ity": 836,
      "ple": 837,
      "still": 838,
      "sp": 839,
      "ess": 840,
      "been": 841,
      "af": 842,
      "well": 843,
      "need": 844,
      "off": 845,
      "che": 846,
      "thank": 847,
      "sel": 848,
      "jo": 849,
      "should": 850,
      "bad": 851,
      "sto": 852,
      "post": 853,
      "back": 854,
      "ol": 855,
      "make": 856,
      "guy": 857,
      "being": 858,
      "could": 859,
      "never": 860,
      "then": 861,
      "pr": 862,
      "ving": 863,
      "sor": 864,
      "fuck": 865,
      "kes": 866,
      "lit": 867,
      "come": 868,
      "ci": 869,
      "ish": 870,
      "yeah": 871,
      "game": 872,
      "hope": 873,
      "new": 874,
      "able": 875,
      "dis": 876,
      "self": 877,
      "most": 878,
      "oo": 879,
      "].": 880,
      "actu": 881,
      "though": 882,
      "ass": 883,
      "ought": 884,
      "over": 885,
      "ful": 886,
      "were": 887,
      "try": 888,
      "fun": 889,
      "ace": 890,
      "ree": 891,
      "ious": 892,
      "int": 893,
      "its": 894,
      "gr": 895,
      "down": 896,
      "great": 897,
      "sure": 898,
      "better": 899,
      "real": 900,
      "ile": 901,
      "pret": 902,
      "sorry": 903,
      "vo": 904,
      "mean": 905,
      "someone": 906,
      "ose": 907,
      "ick": 908,
      "may": 909,
      "also": 910,
      "iz": 911,
      "ue": 912,
      "ade": 913,
      "gl": 914,
      "haha": 915,
      "same": 916,
      "bab": 917,
      "wat": 918,
      "rest": 919,
      "work": 920,
      "age": 921,
      "fri": 922,
      "actually": 923,
      "ms": 924,
      "thought": 925,
      "ure": 926,
      "fin": 927,
      "low": 928,
      "ase": 929,
      "ever": 930,
      "let": 931,
      "bu": 932,
      "ways": 933,
      "ber": 934,
      "fir": 935,
      "ies": 936,
      "ru": 937,
      "friend": 938,
      "ason": 939,
      "hel": 940,
      "where": 941,
      "pretty": 942,
      "pers": 943,
      "sub": 944,
      "ser": 945,
      "those": 946,
      "mis": 947,
      "yes": 948,
      "less": 949,
      "fore": 950,
      "tal": 951,
      "something": 952,
      "du": 953,
      "ated": 954,
      "cou": 955,
      "ang": 956,
      "men": 957,
      "best": 958,
      "spe": 959,
      "oks": 960,
      "wr": 961,
      "dam": 962,
      "led": 963,
      "again": 964,
      "ap": 965,
      "00": 966,
      "wa": 967,
      "person": 968,
      "under": 969,
      "after": 970,
      "di": 971,
      "always": 972,
      "happy": 973,
      "help": 974,
      "into": 975,
      "sed": 976,
      "life": 977,
      "first": 978,
      "happen": 979,
      "looks": 980,
      "makes": 981,
      "hone": 982,
      "app": 983,
      "old": 984,
      "take": 985,
      "min": 986,
      "these": 987,
      "kid": 988,
      "om": 989,
      "sho": 990,
      "hi": 991,
      "ort": 992,
      "stand": 993,
      "wee": 994,
      "bl": 995,
      "comment": 996,
      "shit": 997,
      "years": 998,
      "tle": 999,
      "cl": 1000,
      "des": 1001,
      "],": 1002,
      "made": 1003,
      "ans": 1004,
      "keep": 1005,
      "mon": 1006,
      "damn": 1007,
      "wow": 1008,
      "part": 1009,
      "br": 1010,
      "ating": 1011,
      "kind": 1012,
      "point": 1013,
      "before": 1014,
      "ute": 1015,
      "probab": 1016,
      "bro": 1017,
      "probably": 1018,
      "ps": 1019,
      "hu": 1020,
      "maybe": 1021,
      "said": 1022,
      "find": 1023,
      "cr": 1024,
      "lie": 1025,
      "mat": 1026,
      "show": 1027,
      "sound": 1028,
      "long": 1029,
      "ence": 1030,
      "ak": 1031,
      "hard": 1032,
      "inte": 1033,
      "sur": 1034,
      "getting": 1035,
      "lot": 1036,
      "give": 1037,
      "glad": 1038,
      "last": 1039,
      "hate": 1040,
      "pt": 1041,
      "things": 1042,
      "watch": 1043,
      "tell": 1044,
      "sit": 1045,
      "ff": 1046,
      "care": 1047,
      "fere": 1048,
      "dit": 1049,
      "ance": 1050,
      "everyone": 1051,
      "fi": 1052,
      "start": 1053,
      "nice": 1054,
      "ird": 1055,
      "ach": 1056,
      "....": 1057,
      "ten": 1058,
      "wrong": 1059,
      "ft": 1060,
      "irl": 1061,
      "cle": 1062,
      ":)": 1063,
      "interest": 1064,
      "big": 1065,
      "mind": 1066,
      "az": 1067,
      "many": 1068,
      "anything": 1069,
      "ning": 1070,
      "cor": 1071,
      "honest": 1072,
      "ste": 1073,
      "ich": 1074,
      "ready": 1075,
      "wish": 1076,
      "ild": 1077,
      "doing": 1078,
      "xt": 1079,
      "wait": 1080,
      "times": 1081,
      "aw": 1082,
      "put": 1083,
      "ves": 1084,
      "cre": 1085,
      "ins": 1086,
      "ot": 1087,
      "que": 1088,
      "ody": 1089,
      "belie": 1090,
      "ny": 1091,
      "mem": 1092,
      "mar": 1093,
      "girl": 1094,
      "luck": 1095,
      "used": 1096,
      "dif": 1097,
      "little": 1098,
      "dude": 1099,
      "20": 1100,
      "tri": 1101,
      "won": 1102,
      "ical": 1103,
      "leg": 1104,
      "ince": 1105,
      "ds": 1106,
      "stop": 1107,
      "ily": 1108,
      "row": 1109,
      "call": 1110,
      "bit": 1111,
      "ob": 1112,
      "ange": 1113,
      "sing": 1114,
      "ense": 1115,
      "tur": 1116,
      "sm": 1117,
      "bre": 1118,
      "count": 1119,
      "sad": 1120,
      "fucking": 1121,
      "least": 1122,
      "team": 1123,
      "body": 1124,
      "gen": 1125,
      "proble": 1126,
      "pa": 1127,
      "reason": 1128,
      "while": 1129,
      "believe": 1130,
      "cal": 1131,
      "str": 1132,
      "nothing": 1133,
      "stu": 1134,
      "win": 1135,
      "hh": 1136,
      "ism": 1137,
      "vide": 1138,
      "weird": 1139,
      "ise": 1140,
      "sha": 1141,
      "cra": 1142,
      "guys": 1143,
      "ip": 1144,
      "ible": 1145,
      "nor": 1146,
      "amaz": 1147,
      "defin": 1148,
      "reddit": 1149,
      "understand": 1150,
      "mag": 1151,
      "joy": 1152,
      "ign": 1153,
      "ved": 1154,
      "tro": 1155,
      "sounds": 1156,
      "med": 1157,
      "fav": 1158,
      "rel": 1159,
      "sex": 1160,
      "having": 1161,
      "pic": 1162,
      "enough": 1163,
      "trying": 1164,
      "cool": 1165,
      "already": 1166,
      "car": 1167,
      "sol": 1168,
      "dr": 1169,
      "**": 1170,
      "which": 1171,
      "guess": 1172,
      "kill": 1173,
      "high": 1174,
      "hor": 1175,
      "own": 1176,
      "head": 1177,
      "rible": 1178,
      "fort": 1179,
      "ats": 1180,
      "please": 1181,
      "vie": 1182,
      "differe": 1183,
      "both": 1184,
      "might": 1185,
      "rough": 1186,
      "such": 1187,
      "agree": 1188,
      "ked": 1189,
      "hand": 1190,
      "ary": 1191,
      "true": 1192,
      "anyone": 1193,
      "video": 1194,
      "around": 1195,
      "hear": 1196,
      "seen": 1197,
      "lose": 1198,
      "pu": 1199,
      "ave": 1200,
      "ted": 1201,
      "ically": 1202,
      "enjoy": 1203,
      "since": 1204,
      "side": 1205,
      "seems": 1206,
      "log": 1207,
      "awe": 1208,
      "two": 1209,
      "mer": 1210,
      "til": 1211,
      "inter": 1212,
      "itely": 1213,
      "erally": 1214,
      "amazing": 1215,
      "tor": 1216,
      "else": 1217,
      "stup": 1218,
      "exact": 1219,
      "next": 1220,
      "mor": 1221,
      "another": 1222,
      "ph": 1223,
      "job": 1224,
      "iously": 1225,
      "fr": 1226,
      "cho": 1227,
      "far": 1228,
      "member": 1229,
      "bas": 1230,
      "cur": 1231,
      "awesome": 1232,
      "child": 1233,
      "!!!": 1234,
      "wonder": 1235,
      "stupid": 1236,
      "em": 1237,
      "definitely": 1238,
      "vi": 1239,
      "gi": 1240,
      "par": 1241,
      "through": 1242,
      "season": 1243,
      "je": 1244,
      "ned": 1245,
      "boy": 1246,
      "sid": 1247,
      "saying": 1248,
      "yourself": 1249,
      "ize": 1250,
      "cer": 1251,
      "les": 1252,
      "problem": 1253,
      "aa": 1254,
      "cu": 1255,
      "mone": 1256,
      "dy": 1257,
      "tive": 1258,
      "tre": 1259,
      "ward": 1260,
      "ven": 1261,
      "fl": 1262,
      "pare": 1263,
      "interesting": 1264,
      "live": 1265,
      "char": 1266,
      "funny": 1267,
      "world": 1268,
      "als": 1269,
      "hell": 1270,
      "gets": 1271,
      "ction": 1272,
      "10": 1273,
      "without": 1274,
      "kids": 1275,
      "away": 1276,
      "place": 1277,
      "cks": 1278,
      "face": 1279,
      "ster": 1280,
      "surpr": 1281,
      "ball": 1282,
      "home": 1283,
      "money": 1284,
      "ens": 1285,
      "ugh": 1286,
      "remember": 1287,
      "until": 1288,
      "must": 1289,
      "idea": 1290,
      "stion": 1291,
      "ash": 1292,
      "whole": 1293,
      "wer": 1294,
      "dec": 1295,
      "favor": 1296,
      "left": 1297,
      "aut": 1298,
      "ult": 1299,
      "fam": 1300,
      "ither": 1301,
      "literally": 1302,
      "pay": 1303,
      "came": 1304,
      "umb": 1305,
      "ago": 1306,
      "ger": 1307,
      "lic": 1308,
      "line": 1309,
      "looking": 1310,
      "arly": 1311,
      "done": 1312,
      "ons": 1313,
      "fect": 1314,
      "port": 1315,
      "zy": 1316,
      "vers": 1317,
      "run": 1318,
      "ations": 1319,
      "cial": 1320,
      "secon": 1321,
      "supp": 1322,
      "fact": 1323,
      "enti": 1324,
      "poss": 1325,
      "ars": 1326,
      "women": 1327,
      "??": 1328,
      "eas": 1329,
      "imag": 1330,
      "friends": 1331,
      "super": 1332,
      "feeling": 1333,
      "lma": 1334,
      "list": 1335,
      "fu": 1336,
      "ative": 1337,
      "few": 1338,
      "plain": 1339,
      "light": 1340,
      "ised": 1341,
      "ee": 1342,
      "cept": 1343,
      "ately": 1344,
      "scho": 1345,
      "absol": 1346,
      "against": 1347,
      "night": 1348,
      "absolute": 1349,
      "mit": 1350,
      "ner": 1351,
      "question": 1352,
      "lmao": 1353,
      "ces": 1354,
      "free": 1355,
      "hur": 1356,
      "stuff": 1357,
      "def": 1358,
      "school": 1359,
      "once": 1360,
      "lig": 1361,
      "stay": 1362,
      "hed": 1363,
      "sim": 1364,
      "different": 1365,
      "ists": 1366,
      "either": 1367,
      "poor": 1368,
      "exactly": 1369,
      "went": 1370,
      "expe": 1371,
      "everything": 1372,
      "ia": 1373,
      "heard": 1374,
      "mal": 1375,
      "ses": 1376,
      "col": 1377,
      "oooo": 1378,
      "sy": 1379,
      "favorite": 1380,
      "talking": 1381,
      "ying": 1382,
      "dog": 1383,
      "comple": 1384,
      "saw": 1385,
      "ug": 1386,
      "honestly": 1387,
      "ath": 1388,
      "check": 1389,
      "sent": 1390,
      "ton": 1391,
      "change": 1392,
      "yet": 1393,
      "happened": 1394,
      "beaut": 1395,
      "making": 1396,
      "cus": 1397,
      "ding": 1398,
      "bar": 1399,
      "sk": 1400,
      "ren": 1401,
      "vote": 1402,
      "?!": 1403,
      "ates": 1404,
      "set": 1405,
      "ones": 1406,
      "fan": 1407,
      "ef": 1408,
      "almost": 1409,
      "myself": 1410,
      "coming": 1411,
      "blo": 1412,
      "worse": 1413,
      "joke": 1414,
      "bi": 1415,
      ":(": 1416,
      "today": 1417,
      "ters": 1418,
      "au": 1419,
      "peri": 1420,
      "week": 1421,
      "et": 1422,
      "cri": 1423,
      "miss": 1424,
      "mm": 1425,
      "ask": 1426,
      "cess": 1427,
      "bor": 1428,
      "val": 1429,
      "wel": 1430,
      "dri": 1431,
      "second": 1432,
      "worst": 1433,
      "playing": 1434,
      "god": 1435,
      "tain": 1436,
      "okay": 1437,
      "talk": 1438,
      "terrible": 1439,
      "needs": 1440,
      "lt": 1441,
      "ship": 1442,
      "ban": 1443,
      "cat": 1444,
      "cent": 1445,
      "ian": 1446,
      "month": 1447,
      "crazy": 1448,
      "imagine": 1449,
      "move": 1450,
      "complete": 1451,
      "using": 1452,
      "days": 1453,
      "resp": 1454,
      "story": 1455,
      "lear": 1456,
      "iful": 1457,
      "dou": 1458,
      "ream": 1459,
      "found": 1460,
      "exc": 1461,
      "ness": 1462,
      "top": 1463,
      "sense": 1464,
      "cont": 1465,
      "hit": 1466,
      "ric": 1467,
      "sign": 1468,
      "issu": 1469,
      "ming": 1470,
      "fully": 1471,
      "pri": 1472,
      "hey": 1473,
      "omg": 1474,
      "bs": 1475,
      "ju": 1476,
      "beautiful": 1477,
      "wal": 1478,
      "rect": 1479,
      "news": 1480,
      "llow": 1481,
      "deal": 1482,
      "reci": 1483,
      "adv": 1484,
      "net": 1485,
      "press": 1486,
      "ions": 1487,
      "bur": 1488,
      "cour": 1489,
      "wanted": 1490,
      "ited": 1491,
      "state": 1492,
      "parent": 1493,
      "bra": 1494,
      "war": 1495,
      "fre": 1496,
      "ual": 1497,
      "ump": 1498,
      "worth": 1499,
      "nce": 1500,
      "por": 1501,
      "possible": 1502,
      "cut": 1503,
      "ics": 1504,
      "heal": 1505,
      "cy": 1506,
      "conf": 1507,
      "add": 1508,
      "thinking": 1509,
      "laugh": 1510,
      "fair": 1511,
      "turn": 1512,
      "law": 1513,
      "rac": 1514,
      "action": 1515,
      "gg": 1516,
      "hal": 1517,
      "att": 1518,
      "absolutely": 1519,
      "pick": 1520,
      "games": 1521,
      "relig": 1522,
      "rid": 1523,
      "mom": 1524,
      "pped": 1525,
      "fight": 1526,
      "ket": 1527,
      "family": 1528,
      "cry": 1529,
      "pain": 1530,
      "soon": 1531,
      "leave": 1532,
      "wit": 1533,
      "heart": 1534,
      "cute": 1535,
      "cha": 1536,
      "tru": 1537,
      "appreci": 1538,
      "gun": 1539,
      "argu": 1540,
      "obv": 1541,
      "reg": 1542,
      "ane": 1543,
      "ched": 1544,
      "dumb": 1545,
      "ply": 1546,
      "surprised": 1547,
      "ib": 1548,
      "human": 1549,
      "vel": 1550,
      "watching": 1551,
      "close": 1552,
      "ending": 1553,
      "ilar": 1554,
      "comp": 1555,
      "comm": 1556,
      "expect": 1557,
      "inc": 1558,
      "!!!!": 1559,
      "lost": 1560,
      "sometimes": 1561,
      "bot": 1562,
      "ail": 1563,
      "deser": 1564,
      "hour": 1565,
      "edit": 1566,
      "word": 1567,
      "eat": 1568,
      "entire": 1569,
      "open": 1570,
      "cially": 1571,
      "dra": 1572,
      "matter": 1573,
      "ries": 1574,
      "taking": 1575,
      "opin": 1576,
      "woman": 1577,
      "break": 1578,
      "remind": 1579,
      "lling": 1580,
      "res": 1581,
      "fer": 1582,
      "ture": 1583,
      "ken": 1584,
      "shot": 1585,
      "weet": 1586,
      "polit": 1587,
      "charac": 1588,
      "io": 1589,
      "view": 1590,
      "ys": 1591,
      "half": 1592,
      "seem": 1593,
      "welcome": 1594,
      "]!": 1595,
      "land": 1596,
      "plan": 1597,
      "tu": 1598,
      "gy": 1599,
      "hou": 1600,
      "form": 1601,
      "fine": 1602,
      "youn": 1603,
      "vis": 1604,
      "100": 1605,
      "mate": 1606,
      "bed": 1607,
      "food": 1608,
      "ried": 1609,
      "anger": 1610,
      "ped": 1611,
      "thread": 1612,
      "seriously": 1613,
      "feels": 1614,
      "bring": 1615,
      "ping": 1616,
      "meme": 1617,
      "ween": 1618,
      "congr": 1619,
      "respon": 1620,
      "tot": 1621,
      "mine": 1622,
      "took": 1623,
      "gest": 1624,
      "bud": 1625,
      "die": 1626,
      "perfect": 1627,
      "situ": 1628,
      "past": 1629,
      "comes": 1630,
      "ized": 1631,
      "spect": 1632,
      "201": 1633,
      "experi": 1634,
      "ments": 1635,
      "stead": 1636,
      "fortun": 1637,
      "mil": 1638,
      "told": 1639,
      "ced": 1640,
      "fic": 1641,
      "mess": 1642,
      "dead": 1643,
      "awful": 1644,
      "picture": 1645,
      "baby": 1646,
      "wear": 1647,
      "full": 1648,
      "ross": 1649,
      "]?": 1650,
      "between": 1651,
      "called": 1652,
      "spo": 1653,
      "aking": 1654,
      "movie": 1655,
      "gover": 1656,
      "instead": 1657,
      "sucks": 1658,
      "pass": 1659,
      "acc": 1660,
      "exp": 1661,
      "rather": 1662,
      "dad": 1663,
      "tit": 1664,
      "worry": 1665,
      "cap": 1666,
      "ier": 1667,
      "espe": 1668,
      "appreciate": 1669,
      "pho": 1670,
      "room": 1671,
      "health": 1672,
      "totally": 1673,
      "comments": 1674,
      "especially": 1675,
      "poin": 1676,
      "inst": 1677,
      "religion": 1678,
      "dro": 1679,
      "fall": 1680,
      "completely": 1681,
      "unch": 1682,
      "posit": 1683,
      "ility": 1684,
      "arch": 1685,
      "mid": 1686,
      "parents": 1687,
      "case": 1688,
      "cla": 1689,
      "icul": 1690,
      "ors": 1691,
      "support": 1692,
      "words": 1693,
      "explain": 1694,
      "ya": 1695,
      "goes": 1696,
      "ering": 1697,
      "says": 1698,
      "oud": 1699,
      "strong": 1700,
      "forgot": 1701,
      "clo": 1702,
      "tried": 1703,
      "non": 1704,
      "star": 1705,
      "ial": 1706,
      "book": 1707,
      "gener": 1708,
      "knew": 1709,
      "alone": 1710,
      "den": 1711,
      "relation": 1712,
      "gs": 1713,
      "assu": 1714,
      "wants": 1715,
      "commun": 1716,
      "bus": 1717,
      "unfortun": 1718,
      "date": 1719,
      "rent": 1720,
      "cked": 1721,
      "serv": 1722,
      "artic": 1723,
      "hy": 1724,
      "pop": 1725,
      "contro": 1726,
      "exist": 1727,
      "hold": 1728,
      "clu": 1729,
      "social": 1730,
      "house": 1731,
      "govern": 1732,
      "key": 1733,
      "realize": 1734,
      "dest": 1735,
      "played": 1736,
      "buy": 1737,
      "hot": 1738,
      "meant": 1739,
      "anymore": 1740,
      "ater": 1741,
      "loved": 1742,
      "scre": 1743,
      "players": 1744,
      "mist": 1745,
      "iron": 1746,
      "curi": 1747,
      "hurt": 1748,
      "ear": 1749,
      "toge": 1750,
      "ality": 1751,
      "reading": 1752,
      "posted": 1753,
      "class": 1754,
      "together": 1755,
      "bt": 1756,
      "americ": 1757,
      "cring": 1758,
      "listen": 1759,
      "ident": 1760,
      "iety": 1761,
      "fil": 1762,
      "each": 1763,
      "consid": 1764,
      "mad": 1765,
      "mus": 1766,
      "epis": 1767,
      "opinion": 1768,
      "except": 1769,
      "means": 1770,
      "happens": 1771,
      "situation": 1772,
      "mp": 1773,
      "sal": 1774,
      "ended": 1775,
      "usu": 1776,
      "level": 1777,
      "power": 1778,
      "quite": 1779,
      "country": 1780,
      "ends": 1781,
      "prof": 1782,
      ".\"": 1783,
      "late": 1784,
      "vol": 1785,
      "stra": 1786,
      "sou": 1787,
      "tory": 1788,
      "pping": 1789,
      "horrible": 1790,
      "fut": 1791,
      "sweet": 1792,
      "couple": 1793,
      "hes": 1794,
      "fast": 1795,
      "single": 1796,
      "ific": 1797,
      "shame": 1798,
      "medi": 1799,
      "seeing": 1800,
      "band": 1801,
      "pub": 1802,
      "hair": 1803,
      "works": 1804,
      "chang": 1805,
      "test": 1806,
      "correct": 1807,
      "30": 1808,
      "ls": 1809,
      "ount": 1810,
      "wife": 1811,
      "government": 1812,
      "na": 1813,
      "nah": 1814,
      "moment": 1815,
      "aste": 1816,
      "^^": 1817,
      "mi": 1818,
      "pat": 1819,
      "future": 1820,
      "link": 1821,
      "voted": 1822,
      "course": 1823,
      "cli": 1824,
      "sle": 1825,
      "lead": 1826,
      "iness": 1827,
      "nobody": 1828,
      "song": 1829,
      "shar": 1830,
      "mother": 1831,
      "safe": 1832,
      "easy": 1833,
      "del": 1834,
      "started": 1835,
      "chance": 1836,
      "figu": 1837,
      "pis": 1838,
      "legal": 1839,
      "active": 1840,
      "throw": 1841,
      "inks": 1842,
      "internet": 1843,
      "gone": 1844,
      "anti": 1845,
      "allow": 1846,
      "obviously": 1847,
      "young": 1848,
      "ional": 1849,
      "apo": 1850,
      "pur": 1851,
      "ank": 1852,
      "spec": 1853,
      "months": 1854,
      "advice": 1855,
      "usting": 1856,
      "anyway": 1857,
      "beat": 1858,
      "finally": 1859,
      "ling": 1860,
      "ref": 1861,
      "ress": 1862,
      "working": 1863,
      "ared": 1864,
      "selves": 1865,
      "small": 1866,
      "children": 1867,
      "issue": 1868,
      "jer": 1869,
      "tes": 1870,
      "account": 1871,
      "fake": 1872,
      "av": 1873,
      "ssed": 1874,
      "become": 1875,
      "water": 1876,
      "uu": 1877,
      "ont": 1878,
      "emo": 1879,
      "cake": 1880,
      "clearly": 1881,
      "sco": 1882,
      "ines": 1883,
      "extre": 1884,
      "ital": 1885,
      "death": 1886,
      "unfortunately": 1887,
      "sick": 1888,
      "answer": 1889,
      "don": 1890,
      "ror": 1891,
      "others": 1892,
      "disg": 1893,
      "iled": 1894,
      "quick": 1895,
      "normal": 1896,
      "curious": 1897,
      "wing": 1898,
      "liber": 1899,
      "posts": 1900,
      "pen": 1901,
      "utes": 1902,
      "article": 1903,
      "15": 1904,
      "unk": 1905,
      "ents": 1906,
      "looked": 1907,
      "basically": 1908,
      "sug": 1909,
      "huge": 1910,
      "ctive": 1911,
      "respect": 1912,
      "forget": 1913,
      "serious": 1914,
      "cas": 1915,
      "missed": 1916,
      "giving": 1917,
      "fans": 1918,
      "ches": 1919,
      "tra": 1920,
      "import": 1921,
      "phone": 1922,
      "sour": 1923,
      "lies": 1924,
      "living": 1925,
      "gold": 1926,
      "likely": 1927,
      "girls": 1928,
      "rele": 1929,
      "ities": 1930,
      "text": 1931,
      "loves": 1932,
      "creep": 1933,
      "type": 1934,
      "follow": 1935,
      "dar": 1936,
      "hun": 1937,
      "character": 1938,
      "ator": 1939,
      "iced": 1940,
      "player": 1941,
      "emp": 1942,
      "excited": 1943,
      "racist": 1944,
      "ensive": 1945,
      "ord": 1946,
      "uring": 1947,
      "cringe": 1948,
      "acy": 1949,
      "main": 1950,
      "nat": 1951,
      "ode": 1952,
      "son": 1953,
      "holy": 1954,
      "ular": 1955,
      "ational": 1956,
      "actual": 1957,
      "extreme": 1958,
      "\".": 1959,
      "gin": 1960,
      "attr": 1961,
      "ctor": 1962,
      "dep": 1963,
      ").": 1964,
      "da": 1965,
      "ele": 1966,
      "scen": 1967,
      "learn": 1968,
      "grou": 1969,
      "experience": 1970,
      "fac": 1971,
      "felt": 1972,
      "cast": 1973,
      "tem": 1974,
      "takes": 1975,
      "needed": 1976,
      "brother": 1977,
      "gave": 1978,
      "round": 1979,
      "fix": 1980,
      "ire": 1981,
      "raid": 1982,
      "certain": 1983,
      "ba": 1984,
      "cting": 1985,
      "episode": 1986,
      "sat": 1987,
      "ulti": 1988,
      "disap": 1989,
      "writ": 1990,
      "gn": 1991,
      "cold": 1992,
      "ants": 1993,
      "mention": 1994,
      "grow": 1995,
      "ni": 1996,
      "orig": 1997,
      "hahaha": 1998,
      "tube": 1999,
      "later": 2000,
      "liked": 2001,
      "hopefully": 2002,
      "minutes": 2003,
      "deserve": 2004,
      "tic": 2005,
      "clear": 2006,
      "ring": 2007,
      "moved": 2008,
      "relationship": 2009,
      "umber": 2010,
      "photo": 2011,
      "og": 2012,
      "reply": 2013,
      "idence": 2014,
      "oc": 2015,
      "pose": 2016,
      "ibly": 2017,
      "lad": 2018,
      "lion": 2019,
      "shut": 2020,
      "vid": 2021,
      "unless": 2022,
      "history": 2023,
      "black": 2024,
      "mur": 2025,
      "step": 2026,
      "idi": 2027,
      "disgusting": 2028,
      "colle": 2029,
      "music": 2030,
      "usually": 2031,
      "poli": 2032,
      "antly": 2033,
      "concer": 2034,
      "incred": 2035,
      "sharing": 2036,
      "iculous": 2037,
      "gan": 2038,
      "anim": 2039,
      "bat": 2040,
      "pie": 2041,
      "often": 2042,
      "gress": 2043,
      "bir": 2044,
      "eyes": 2045,
      "ridiculous": 2046,
      "current": 2047,
      "ram": 2048,
      "vs": 2049,
      "trust": 2050,
      "ages": 2051,
      "ugly": 2052,
      "attack": 2053,
      "sleep": 2054,
      "idiot": 2055,
      "cam": 2056,
      "dle": 2057,
      "ded": 2058,
      "wise": 2059,
      "demo": 2060,
      "os": 2061,
      "rif": 2062,
      "foot": 2063,
      "tions": 2064,
      "ground": 2065,
      "dream": 2066,
      "pet": 2067,
      "watched": 2068,
      "hours": 2069,
      "fant": 2070,
      "illed": 2071,
      "control": 2072,
      "hilar": 2073,
      "sn": 2074,
      "uni": 2075,
      "suck": 2076,
      "origin": 2077,
      "12": 2078,
      "dist": 2079,
      "eye": 2080,
      "given": 2081,
      "apolog": 2082,
      "bing": 2083,
      ".....": 2084,
      "posting": 2085,
      "ined": 2086,
      "const": 2087,
      "drink": 2088,
      "xic": 2089,
      "whatever": 2090,
      "knows": 2091,
      "congrats": 2092,
      "birth": 2093,
      "white": 2094,
      "straight": 2095,
      "tom": 2096,
      "public": 2097,
      "ged": 2098,
      "sun": 2099,
      "lls": 2100,
      "yep": 2101,
      "ignor": 2102,
      "est": 2103,
      "hoping": 2104,
      "themselves": 2105,
      "ards": 2106,
      "lucky": 2107,
      "tonight": 2108,
      "gar": 2109,
      "sme": 2110,
      "atten": 2111,
      "chan": 2112,
      "important": 2113,
      "50": 2114,
      "ices": 2115,
      "sup": 2116,
      "complain": 2117,
      "afraid": 2118,
      "city": 2119,
      "dru": 2120,
      "ient": 2121,
      "posed": 2122,
      "trans": 2123,
      "comfort": 2124,
      "ague": 2125,
      "front": 2126,
      "argument": 2127,
      "😂😂": 2128,
      "ison": 2129,
      "suc": 2130,
      "ject": 2131,
      "claim": 2132,
      "flo": 2133,
      "ory": 2134,
      "arent": 2135,
      "acks": 2136,
      "spir": 2137,
      "subreddit": 2138,
      "during": 2139,
      "~~": 2140,
      "brain": 2141,
      "points": 2142,
      "bul": 2143,
      "three": 2144,
      "anx": 2145,
      "hilarious": 2146,
      "fire": 2147,
      "outside": 2148,
      "short": 2149,
      "19": 2150,
      "insu": 2151,
      "anno": 2152,
      "enter": 2153,
      "odd": 2154,
      "worried": 2155,
      "proper": 2156,
      "void": 2157,
      "apparent": 2158,
      "interested": 2159,
      "response": 2160,
      "ben": 2161,
      "number": 2162,
      "istic": 2163,
      "build": 2164,
      "pun": 2165,
      "contr": 2166,
      "aged": 2167,
      "weeks": 2168,
      "sil": 2169,
      "accept": 2170,
      "wall": 2171,
      "loss": 2172,
      "shi": 2173,
      "scared": 2174,
      "eeee": 2175,
      "doubt": 2176,
      "!\"": 2177,
      "uc": 2178,
      "asc": 2179,
      "legit": 2180,
      "suppor": 2181,
      "syste": 2182,
      "fur": 2183,
      "angry": 2184,
      "personally": 2185,
      "mista": 2186,
      "igh": 2187,
      "town": 2188,
      "mental": 2189,
      "blame": 2190,
      "calling": 2191,
      "fat": 2192,
      "party": 2193,
      "america": 2194,
      "ging": 2195,
      "sen": 2196,
      "canad": 2197,
      "common": 2198,
      "refere": 2199,
      "noticed": 2200,
      "killed": 2201,
      "ze": 2202,
      "youtube": 2203,
      "ustr": 2204,
      "bow": 2205,
      "present": 2206,
      "crit": 2207,
      "smo": 2208,
      "amount": 2209,
      "votes": 2210,
      "title": 2211,
      "attention": 2212,
      "hus": 2213,
      "mou": 2214,
      "asking": 2215,
      "cheers": 2216,
      "proud": 2217,
      "truth": 2218,
      "bal": 2219,
      "fla": 2220,
      "sis": 2221,
      "difference": 2222,
      "cover": 2223,
      "plac": 2224,
      "tax": 2225,
      "contin": 2226,
      "fli": 2227,
      "user": 2228,
      "sort": 2229,
      "wards": 2230,
      "crying": 2231,
      "hind": 2232,
      "jok": 2233,
      "issues": 2234,
      "order": 2235,
      "search": 2236,
      "lying": 2237,
      "astic": 2238,
      "telling": 2239,
      "apparently": 2240,
      "vic": 2241,
      "doctor": 2242,
      "recent": 2243,
      "appro": 2244,
      "phys": 2245,
      "stick": 2246,
      "ample": 2247,
      "prote": 2248,
      "grand": 2249,
      "speak": 2250,
      "sexual": 2251,
      "40": 2252,
      "cro": 2253,
      "ution": 2254,
      "trash": 2255,
      "waiting": 2256,
      "group": 2257,
      "lar": 2258,
      "save": 2259,
      "embar": 2260,
      "200": 2261,
      "cing": 2262,
      "site": 2263,
      "nope": 2264,
      "insane": 2265,
      "confused": 2266,
      "sty": 2267,
      "soc": 2268,
      "likes": 2269,
      "yea": 2270,
      "uss": 2271,
      "boys": 2272,
      "similar": 2273,
      "husband": 2274,
      "tar": 2275,
      "ability": 2276,
      "train": 2277,
      "hands": 2278,
      "tou": 2279,
      "viol": 2280,
      "source": 2281,
      "police": 2282,
      "produ": 2283,
      "huh": 2284,
      "cru": 2285,
      "ually": 2286,
      "ooo": 2287,
      "pan": 2288,
      "ining": 2289,
      "upvote": 2290,
      "hhhh": 2291,
      "buddy": 2292,
      "ield": 2293,
      "skin": 2294,
      "original": 2295,
      "mass": 2296,
      "truly": 2297,
      "extremely": 2298,
      "wed": 2299,
      "behind": 2300,
      "bum": 2301,
      "area": 2302,
      "goal": 2303,
      "ender": 2304,
      "boo": 2305,
      "ught": 2306,
      "ina": 2307,
      "ret": 2308,
      "jud": 2309,
      "hum": 2310,
      "⠀⠀": 2311,
      "regre": 2312,
      "trade": 2313,
      "fail": 2314,
      "died": 2315,
      "creepy": 2316,
      "appe": 2317,
      "based": 2318,
      "screen": 2319,
      "avoid": 2320,
      "tf": 2321,
      "zer": 2322,
      "road": 2323,
      "cost": 2324,
      "ching": 2325,
      "hero": 2326,
      "danger": 2327,
      "himself": 2328,
      "psy": 2329,
      "hole": 2330,
      "convers": 2331,
      "shows": 2332,
      "equ": 2333,
      "uine": 2334,
      "ws": 2335,
      "thinks": 2336,
      "pray": 2337,
      "genuine": 2338,
      "drive": 2339,
      "system": 2340,
      "yy": 2341,
      "therap": 2342,
      "scri": 2343,
      "democr": 2344,
      "gra": 2345,
      "sl": 2346,
      "cking": 2347,
      "rage": 2348,
      "steal": 2349,
      "early": 2350,
      "thre": 2351,
      "sum": 2352,
      "feed": 2353,
      "logy": 2354,
      "embarr": 2355,
      "--": 2356,
      "air": 2357,
      "bri": 2358,
      "tiv": 2359,
      "smile": 2360,
      "company": 2361,
      "general": 2362,
      "due": 2363,
      "jor": 2364,
      "nu": 2365,
      "twit": 2366,
      "forward": 2367,
      "dark": 2368,
      "eating": 2369,
      "hat": 2370,
      "ler": 2371,
      "vil": 2372,
      "ished": 2373,
      "gives": 2374,
      "paid": 2375,
      "walk": 2376,
      "attractive": 2377,
      "base": 2378,
      "fit": 2379,
      "gif": 2380,
      "asked": 2381,
      "losing": 2382,
      "dered": 2383,
      "ith": 2384,
      "descri": 2385,
      "accident": 2386,
      "figure": 2387,
      "slow": 2388,
      "ition": 2389,
      "league": 2390,
      "deep": 2391,
      "share": 2392,
      "zz": 2393,
      "running": 2394,
      "event": 2395,
      "feelings": 2396,
      "hang": 2397,
      "report": 2398,
      "yester": 2399,
      "taken": 2400,
      "pared": 2401,
      "yesterday": 2402,
      "lea": 2403,
      "upset": 2404,
      "chee": 2405,
      "longer": 2406,
      "choice": 2407,
      "aaaa": 2408,
      "middle": 2409,
      "cious": 2410,
      "cord": 2411,
      "ran": 2412,
      "yo": 2413,
      "eng": 2414,
      "sadly": 2415,
      "draft": 2416,
      "reminds": 2417,
      "tv": 2418,
      "ising": 2419,
      "neg": 2420,
      "example": 2421,
      "store": 2422,
      "discus": 2423,
      "aware": 2424,
      "wonderful": 2425,
      "political": 2426,
      "toxic": 2427,
      "load": 2428,
      "ama": 2429,
      "abo": 2430,
      "depress": 2431,
      "confir": 2432,
      "downvoted": 2433,
      "special": 2434,
      "bage": 2435,
      "si": 2436,
      "inclu": 2437,
      "ury": 2438,
      "gotten": 2439,
      "shoo": 2440,
      "problems": 2441,
      "expected": 2442,
      "cir": 2443,
      "eth": 2444,
      "ience": 2445,
      "rand": 2446,
      "ased": 2447,
      "unt": 2448,
      "prove": 2449,
      "fault": 2450,
      "morning": 2451,
      "college": 2452,
      "eu": 2453,
      "mas": 2454,
      "lots": 2455,
      "arely": 2456,
      "tech": 2457,
      "imp": 2458,
      "presid": 2459,
      "lan": 2460,
      "inform": 2461,
      "alright": 2462,
      "space": 2463,
      "inside": 2464,
      "troll": 2465,
      "none": 2466,
      "irt": 2467,
      "major": 2468,
      "prefer": 2469,
      "considering": 2470,
      "success": 2471,
      "cop": 2472,
      "clean": 2473,
      "strange": 2474,
      "crap": 2475,
      ".”": 2476,
      "11": 2477,
      "dic": 2478,
      "yi": 2479,
      "hug": 2480,
      "path": 2481,
      "regard": 2482,
      "emotion": 2483,
      "comfortable": 2484,
      "cen": 2485,
      "cult": 2486,
      "russ": 2487,
      "term": 2488,
      "killing": 2489,
      "piece": 2490,
      "reco": 2491,
      "deli": 2492,
      "changed": 2493,
      "society": 2494,
      "kward": 2495,
      "roy": 2496,
      "match": 2497,
      "awkward": 2498,
      "media": 2499,
      "birthday": 2500,
      "canada": 2501,
      "reaction": 2502,
      "uses": 2503,
      "agre": 2504,
      "turned": 2505,
      "wondering": 2506,
      "position": 2507,
      "disappoint": 2508,
      "mouth": 2509,
      "resu": 2510,
      "engl": 2511,
      "door": 2512,
      "tired": 2513,
      "tern": 2514,
      "blue": 2515,
      "dd": 2516,
      "rich": 2517,
      "sla": 2518,
      "ences": 2519,
      "near": 2520,
      "disagree": 2521,
      "stud": 2522,
      "emplo": 2523,
      "snow": 2524,
      "surprise": 2525,
      "male": 2526,
      "blood": 2527,
      "scene": 2528,
      "mr": 2529,
      "multi": 2530,
      "bel": 2531,
      "burn": 2532,
      "yup": 2533,
      "necess": 2534,
      "bull": 2535,
      "personal": 2536,
      "older": 2537,
      "biggest": 2538,
      "decis": 2539,
      "info": 2540,
      "met": 2541,
      "mend": 2542,
      "accur": 2543,
      "box": 2544,
      "congrat": 2545,
      "99": 2546,
      ":/": 2547,
      "bunch": 2548,
      "fasc": 2549,
      "coach": 2550,
      "born": 2551,
      "banned": 2552,
      "double": 2553,
      "allowed": 2554,
      "football": 2555,
      "16": 2556,
      "fal": 2557,
      "waste": 2558,
      "online": 2559,
      "father": 2560,
      "direct": 2561,
      "aver": 2562,
      "ili": 2563,
      "trou": 2564,
      "ulation": 2565,
      "ently": 2566,
      "worked": 2567,
      "morrow": 2568,
      "garbage": 2569,
      "jump": 2570,
      "lines": 2571,
      "tough": 2572,
      "lied": 2573,
      "paying": 2574,
      "profess": 2575,
      "pes": 2576,
      "rr": 2577,
      "ris": 2578,
      "beha": 2579,
      "educ": 2580,
      "goog": 2581,
      "ulations": 2582,
      "quit": 2583,
      "mostly": 2584,
      "behavi": 2585,
      "pi": 2586,
      "fellow": 2587,
      "related": 2588,
      "block": 2589,
      "consider": 2590,
      "information": 2591,
      "trouble": 2592,
      "gro": 2593,
      "kit": 2594,
      "pack": 2595,
      "kept": 2596,
      "west": 2597,
      "ably": 2598,
      "coun": 2599,
      "write": 2600,
      "mistake": 2601,
      "twitter": 2602,
      "25": 2603,
      "bon": 2604,
      "assed": 2605,
      "force": 2606,
      "ney": 2607,
      "starting": 2608,
      "etc": 2609,
      "bottom": 2610,
      ";)": 2611,
      "iss": 2612,
      "playoff": 2613,
      "reality": 2614,
      "spot": 2615,
      "regret": 2616,
      "fing": 2617,
      "twi": 2618,
      "alive": 2619,
      "admit": 2620,
      "meaning": 2621,
      "sides": 2622,
      "easier": 2623,
      "defense": 2624,
      "rifying": 2625,
      "pm": 2626,
      "tomorrow": 2627,
      "notice": 2628,
      "idio": 2629,
      "host": 2630,
      "ural": 2631,
      "otherwise": 2632,
      "effort": 2633,
      "sion": 2634,
      "send": 2635,
      "roll": 2636,
      "weight": 2637,
      "fear": 2638,
      "cons": 2639,
      "tail": 2640,
      "cted": 2641,
      "favour": 2642,
      "learned": 2643,
      "politics": 2644,
      "anxiety": 2645,
      "nar": 2646,
      "guns": 2647,
      "community": 2648,
      "scary": 2649,
      "easily": 2650,
      "rup": 2651,
      "swit": 2652,
      "ops": 2653,
      "option": 2654,
      "teach": 2655,
      "commit": 2656,
      "cares": 2657,
      "genuinely": 2658,
      "bag": 2659,
      "ez": 2660,
      "fle": 2661,
      "ired": 2662,
      "lack": 2663,
      "suggest": 2664,
      "murder": 2665,
      "username": 2666,
      "squ": 2667,
      "stat": 2668,
      "compe": 2669,
      "quality": 2670,
      "forever": 2671,
      "kills": 2672,
      "videos": 2673,
      "card": 2674,
      "somehow": 2675,
      "pressed": 2676,
      "spend": 2677,
      "gram": 2678,
      "helps": 2679,
      "simple": 2680,
      "oooooooo": 2681,
      "business": 2682,
      "places": 2683,
      "random": 2684,
      "nut": 2685,
      "sli": 2686,
      "ories": 2687,
      "begin": 2688,
      "commend": 2689,
      "thoughts": 2690,
      "broken": 2691,
      "smart": 2692,
      "decid": 2693,
      "service": 2694,
      "dare": 2695,
      "board": 2696,
      "bless": 2697,
      "scream": 2698,
      "aught": 2699,
      "zero": 2700,
      "fed": 2701,
      "stru": 2702,
      "vest": 2703,
      "rap": 2704,
      "izz": 2705,
      "keeps": 2706,
      "drag": 2707,
      "treat": 2708,
      "obvious": 2709,
      "assume": 2710,
      "relev": 2711,
      "supposed": 2712,
      "field": 2713,
      "kick": 2714,
      "alous": 2715,
      "und": 2716,
      "laug": 2717,
      "office": 2718,
      "pract": 2719,
      "price": 2720,
      "million": 2721,
      "gas": 2722,
      "hmm": 2723,
      "lord": 2724,
      "sar": 2725,
      "removed": 2726,
      "along": 2727,
      "knowing": 2728,
      "acting": 2729,
      "prev": 2730,
      "voting": 2731,
      "hurts": 2732,
      "expecting": 2733,
      "porn": 2734,
      "drop": 2735,
      "fell": 2736,
      "000": 2737,
      "happening": 2738,
      "jealous": 2739,
      "90": 2740,
      "lts": 2741,
      "taste": 2742,
      "usion": 2743,
      "enty": 2744,
      "evidence": 2745,
      "faith": 2746,
      "married": 2747,
      "effect": 2748,
      "pointing": 2749,
      "mix": 2750,
      "congratulations": 2751,
      "pal": 2752,
      "vir": 2753,
      "recommend": 2754,
      "moder": 2755,
      "exce": 2756,
      "extra": 2757,
      "broke": 2758,
      "memes": 2759,
      "message": 2760,
      "agreed": 2761,
      "gross": 2762,
      "vor": 2763,
      "career": 2764,
      "boring": 2765,
      "pissed": 2766,
      "sister": 2767,
      "lled": 2768,
      "inv": 2769,
      "stri": 2770,
      "plenty": 2771,
      "teams": 2772,
      "push": 2773,
      "questions": 2774,
      "fantastic": 2775,
      "langu": 2776,
      "ado": 2777,
      "cross": 2778,
      "wild": 2779,
      "till": 2780,
      "pot": 2781,
      "quo": 2782,
      "rights": 2783,
      "offic": 2784,
      "downvote": 2785,
      "series": 2786,
      "diffic": 2787,
      "breaking": 2788,
      "catch": 2789,
      "fighting": 2790,
      "incredibly": 2791,
      "annoying": 2792,
      "conversation": 2793,
      "accurate": 2794,
      "twice": 2795,
      "idiots": 2796,
      "ax": 2797,
      "ied": 2798,
      "ties": 2799,
      "deb": 2800,
      "trad": 2801,
      "igno": 2802,
      "missing": 2803,
      "bigger": 2804,
      "trig": 2805,
      "norm": 2806,
      "drunk": 2807,
      "pull": 2808,
      "characters": 2809,
      "wearing": 2810,
      "average": 2811,
      "page": 2812,
      "third": 2813,
      "rece": 2814,
      "final": 2815,
      "putting": 2816,
      "???": 2817,
      "table": 2818,
      "whe": 2819,
      "invol": 2820,
      "beli": 2821,
      "asty": 2822,
      "ctions": 2823,
      "balls": 2824,
      "priv": 2825,
      "certainly": 2826,
      "2nd": 2827,
      "eh": 2828,
      "mir": 2829,
      "stuck": 2830,
      "crime": 2831,
      "favourite": 2832,
      "pizz": 2833,
      "sec": 2834,
      "cook": 2835,
      "abuse": 2836,
      "moving": 2837,
      "suff": 2838,
      "usive": 2839,
      "everybody": 2840,
      "desper": 2841,
      "contract": 2842,
      "dangerous": 2843,
      "18": 2844,
      "aks": 2845,
      "although": 2846,
      "ization": 2847,
      "decent": 2848,
      "entertain": 2849,
      "17": 2850,
      "fish": 2851,
      "vered": 2852,
      "loving": 2853,
      "lives": 2854,
      "ford": 2855,
      "willing": 2856,
      "wake": 2857,
      "version": 2858,
      "lady": 2859,
      "recently": 2860,
      "barely": 2861,
      "uk": 2862,
      "rep": 2863,
      "offe": 2864,
      "femin": 2865,
      "science": 2866,
      "finish": 2867,
      "helped": 2868,
      "jerk": 2869,
      "uh": 2870,
      "hood": 2871,
      "verse": 2872,
      "chr": 2873,
      "illegal": 2874,
      "minute": 2875,
      "dying": 2876,
      "excuse": 2877,
      "drugs": 2878,
      "reference": 2879,
      "above": 2880,
      "relevant": 2881,
      "blow": 2882,
      "ges": 2883,
      "nic": 2884,
      "weak": 2885,
      "tex": 2886,
      "teen": 2887,
      "apart": 2888,
      "popular": 2889,
      "bast": 2890,
      "ude": 2891,
      "orable": 2892,
      "velo": 2893,
      "abor": 2894,
      "knowled": 2895,
      "rape": 2896,
      "expensive": 2897,
      "purpose": 2898,
      "president": 2899,
      "national": 2900,
      "orts": 2901,
      "voice": 2902,
      "keeping": 2903,
      "flu": 2904,
      "contact": 2905,
      "14": 2906,
      "bb": 2907,
      "cred": 2908,
      "dating": 2909,
      "hon": 2910,
      "kar": 2911,
      "mach": 2912,
      "thro": 2913,
      "pleas": 2914,
      "realized": 2915,
      "positive": 2916,
      "tempt": 2917,
      "fy": 2918,
      "ption": 2919,
      "race": 2920,
      "rated": 2921,
      "iting": 2922,
      "rock": 2923,
      "cops": 2924,
      "develo": 2925,
      "hahahaha": 2926,
      "understanding": 2927,
      "simply": 2928,
      "value": 2929,
      "multiple": 2930,
      "laughed": 2931,
      "hated": 2932,
      "mb": 2933,
      "mare": 2934,
      "rs": 2935,
      "inno": 2936,
      "local": 2937,
      "doll": 2938,
      "plus": 2939,
      "promis": 2940,
      "izing": 2941,
      "desp": 2942,
      "hearing": 2943,
      "nightmare": 2944,
      "custo": 2945,
      "2019": 2946,
      "healthy": 2947,
      "bowl": 2948,
      "embarrass": 2949,
      "daught": 2950,
      "loud": 2951,
      "vacc": 2952,
      "arm": 2953,
      "dow": 2954,
      "iest": 2955,
      "brown": 2956,
      "dogs": 2957,
      "sky": 2958,
      "ships": 2959,
      "style": 2960,
      "bru": 2961,
      "cats": 2962,
      "ker": 2963,
      "focus": 2964,
      "prison": 2965,
      "enjoyed": 2966,
      "mers": 2967,
      "facts": 2968,
      "pizza": 2969,
      "rad": 2970,
      "inj": 2971,
      "asy": 2972,
      "mail": 2973,
      "stopped": 2974,
      "driving": 2975,
      "laughing": 2976,
      "soul": 2977,
      "jerse": 2978,
      "inju": 2979,
      "ham": 2980,
      "dod": 2981,
      "chill": 2982,
      "cancer": 2983,
      "design": 2984,
      "destroy": 2985,
      "difficult": 2986,
      "mig": 2987,
      "slight": 2988,
      "tend": 2989,
      "iny": 2990,
      "ature": 2991,
      "ings": 2992,
      "ency": 2993,
      "sea": 2994,
      "somewhere": 2995,
      "oppo": 2996,
      "context": 2997,
      "known": 2998,
      "period": 2999,
      "content": 3000,
      "south": 3001,
      "wtf": 3002,
      "beer": 3003,
      "aming": 3004,
      "nel": 3005,
      "somebody": 3006,
      "shirt": 3007,
      "shoot": 3008,
      "choose": 3009,
      "color": 3010,
      "fresh": 3011,
      "yikes": 3012,
      "bullshit": 3013,
      "false": 3014,
      "bf": 3015,
      "gri": 3016,
      "tag": 3017,
      "oun": 3018,
      "requ": 3019,
      "ond": 3020,
      "logic": 3021,
      "respons": 3022,
      "explo": 3023,
      "avail": 3024,
      "depends": 3025,
      "lli": 3026,
      "asses": 3027,
      "bes": 3028,
      "sell": 3029,
      "sess": 3030,
      "soli": 3031,
      "calm": 3032,
      "frustr": 3033,
      "capital": 3034,
      "gressive": 3035,
      "google": 3036,
      "weed": 3037,
      "chick": 3038,
      "ify": 3039,
      "rules": 3040,
      "seconds": 3041,
      "atives": 3042,
      "believ": 3043,
      "karma": 3044,
      "bought": 3045,
      "oil": 3046,
      "thetic": 3047,
      "secre": 3048,
      "american": 3049,
      "natural": 3050,
      "swe": 3051,
      "wins": 3052,
      "thor": 3053,
      "lier": 3054,
      "wever": 3055,
      "however": 3056,
      "covered": 3057,
      "neigh": 3058,
      "seemed": 3059,
      "bother": 3060,
      "pres": 3061,
      "brought": 3062,
      "facebook": 3063,
      "humans": 3064,
      "animals": 3065,
      "ignorant": 3066,
      "language": 3067,
      "lon": 3068,
      "record": 3069,
      "stree": 3070,
      "chat": 3071,
      "sud": 3072,
      "proof": 3073,
      "fucked": 3074,
      "clar": 3075,
      "sentence": 3076,
      "warm": 3077,
      "smell": 3078,
      "english": 3079,
      "bil": 3080,
      "conserv": 3081,
      "compared": 3082,
      "plays": 3083,
      "sitting": 3084,
      "club": 3085,
      "represent": 3086,
      "organ": 3087,
      "bear": 3088,
      "homo": 3089,
      "saved": 3090,
      "perfor": 3091,
      "grad": 3092,
      "smh": 3093,
      "turns": 3094,
      "ibility": 3095,
      "culture": 3096,
      "bill": 3097,
      "bath": 3098,
      "gor": 3099,
      "wind": 3100,
      "meet": 3101,
      "states": 3102,
      "env": 3103,
      "tip": 3104,
      "butt": 3105,
      "psycho": 3106,
      "summer": 3107,
      "negative": 3108,
      "sudden": 3109,
      "crow": 3110,
      "jour": 3111,
      "lm": 3112,
      "lay": 3113,
      "mc": 3114,
      "van": 3115,
      "kets": 3116,
      "uncomfortable": 3117,
      "within": 3118,
      "fol": 3119,
      "stories": 3120,
      "inten": 3121,
      "finding": 3122,
      "crack": 3123,
      "boyfriend": 3124,
      "xd": 3125,
      "peace": 3126,
      "chur": 3127,
      "mob": 3128,
      "guil": 3129,
      "reasons": 3130,
      "interview": 3131,
      "critic": 3132,
      "large": 3133,
      "risk": 3134,
      "80": 3135,
      "numb": 3136,
      "inde": 3137,
      "bitch": 3138,
      "stranger": 3139,
      "defend": 3140,
      "recogn": 3141,
      "din": 3142,
      "fs": 3143,
      "atic": 3144,
      "offer": 3145,
      "winning": 3146,
      "medical": 3147,
      "protect": 3148,
      "behavior": 3149,
      "kno": 3150,
      "pc": 3151,
      "seat": 3152,
      "limit": 3153,
      "chi": 3154,
      "conne": 3155,
      "evil": 3156,
      "girlfriend": 3157,
      "hhh": 3158,
      "auto": 3159,
      "walking": 3160,
      "quickly": 3161,
      "disappointed": 3162,
      "decided": 3163,
      "daughter": 3164,
      "wis": 3165,
      "wash": 3166,
      "spent": 3167,
      "badly": 3168,
      "tribut": 3169,
      "statement": 3170,
      "assuming": 3171,
      "busy": 3172,
      "leaving": 3173,
      "available": 3174,
      "rate": 3175,
      "ub": 3176,
      "ener": 3177,
      "loc": 3178,
      "riage": 3179,
      "yours": 3180,
      "lovely": 3181,
      "wood": 3182,
      "0000": 3183,
      "mark": 3184,
      "crimin": 3185,
      "earth": 3186,
      "professional": 3187,
      "1st": 3188,
      ":-": 3189,
      "athe": 3190,
      "rit": 3191,
      "yer": 3192,
      "invest": 3193,
      "lete": 3194,
      "caught": 3195,
      "carry": 3196,
      "laws": 3197,
      "jokes": 3198,
      "eventually": 3199,
      "jail": 3200,
      "ud": 3201,
      "eral": 3202,
      "acher": 3203,
      "track": 3204,
      "conside": 3205,
      "harder": 3206,
      "damage": 3207,
      "partner": 3208,
      "reasonable": 3209,
      "currently": 3210,
      "silly": 3211,
      "massive": 3212,
      "knowledge": 3213,
      "considered": 3214,
      "total": 3215,
      "lock": 3216,
      "pod": 3217,
      "impossible": 3218,
      "anyways": 3219,
      "cheap": 3220,
      "rule": 3221,
      "park": 3222,
      "possibly": 3223,
      "playoffs": 3224,
      "bang": 3225,
      "cup": 3226,
      "ii": 3227,
      "heav": 3228,
      "hol": 3229,
      "!!!!!": 3230,
      "gree": 3231,
      "painful": 3232,
      "specific": 3233,
      "uuuu": 3234,
      "continue": 3235,
      "ai": 3236,
      "four": 3237,
      "gain": 3238,
      "nal": 3239,
      "pit": 3240,
      "rela": 3241,
      "refer": 3242,
      "anal": 3243,
      "lebr": 3244,
      "vert": 3245,
      "ified": 3246,
      "cies": 3247,
      "?!?!": 3248,
      "cheese": 3249,
      "centr": 3250,
      "church": 3251,
      "gers": 3252,
      "hide": 3253,
      "traf": 3254,
      "imate": 3255,
      "ived": 3256,
      "failed": 3257,
      "talent": 3258,
      "highly": 3259,
      "visit": 3260,
      "writing": 3261,
      "benef": 3262,
      "touch": 3263,
      "christ": 3264,
      "secret": 3265,
      "!”": 3266,
      "60": 3267,
      "ns": 3268,
      "lect": 3269,
      "ario": 3270,
      "mode": 3271,
      "helpful": 3272,
      "shocked": 3273,
      "basket": 3274,
      "holding": 3275,
      "concerned": 3276,
      "opposite": 3277,
      "indeed": 3278,
      "ko": 3279,
      "pure": 3280,
      "vies": 3281,
      "attempt": 3282,
      "lions": 3283,
      "feet": 3284,
      "terrifying": 3285,
      "opport": 3286,
      "jobs": 3287,
      "lights": 3288,
      "earlier": 3289,
      "incredible": 3290,
      "depression": 3291,
      "opportun": 3292,
      "?\"": 3293,
      "cand": 3294,
      "nasty": 3295,
      "rat": 3296,
      "hea": 3297,
      "chic": 3298,
      "ults": 3299,
      "aster": 3300,
      "green": 3301,
      "affect": 3302,
      "blind": 3303,
      "tenti": 3304,
      "shooting": 3305,
      "quote": 3306,
      "bly": 3307,
      "ky": 3308,
      "rant": 3309,
      "sir": 3310,
      "teacher": 3311,
      "trick": 3312,
      "intro": 3313,
      "workers": 3314,
      "hello": 3315,
      "queen": 3316,
      "checked": 3317,
      "daily": 3318,
      "mentioned": 3319,
      "injury": 3320,
      "neighbor": 3321,
      "3r": 3322,
      "gender": 3323,
      "docu": 3324,
      "tears": 3325,
      "indi": 3326,
      "books": 3327,
      "subs": 3328,
      "***": 3329,
      "unders": 3330,
      "solid": 3331,
      "cit": 3332,
      "rare": 3333,
      "itself": 3334,
      "stream": 3335,
      "names": 3336,
      "dire": 3337,
      "hugs": 3338,
      "market": 3339,
      "tors": 3340,
      "flag": 3341,
      "wholesome": 3342,
      "decide": 3343,
      "valid": 3344,
      "deserves": 3345,
      "throwing": 3346,
      "judge": 3347,
      "consist": 3348,
      "traffic": 3349,
      "aper": 3350,
      "ann": 3351,
      "stic": 3352,
      "vegan": 3353,
      "sever": 3354,
      "sequ": 3355,
      "subscri": 3356,
      "generally": 3357,
      "piss": 3358,
      "penis": 3359,
      "aur": 3360,
      "coffe": 3361,
      "nail": 3362,
      "spl": 3363,
      "repe": 3364,
      "itude": 3365,
      "towards": 3366,
      "bey": 3367,
      "across": 3368,
      "movies": 3369,
      "tered": 3370,
      "update": 3371,
      "conv": 3372,
      "promo": 3373,
      "minor": 3374,
      "showing": 3375,
      "legs": 3376,
      "pics": 3377,
      "entirely": 3378,
      "despite": 3379,
      "numbers": 3380,
      "dat": 3381,
      "assa": 3382,
      "china": 3383,
      "suit": 3384,
      "compar": 3385,
      "aging": 3386,
      "happiness": 3387,
      "scam": 3388,
      "speed": 3389,
      "marriage": 3390,
      "paper": 3391,
      "north": 3392,
      "camera": 3393,
      "classic": 3394,
      "appropri": 3395,
      "delicious": 3396,
      "ignore": 3397,
      "dig": 3398,
      "dress": 3399,
      "secur": 3400,
      "note": 3401,
      "adult": 3402,
      "adorable": 3403,
      "celebr": 3404,
      "impress": 3405,
      "anybody": 3406,
      "acted": 3407,
      "join": 3408,
      "sexy": 3409,
      "moron": 3410,
      "addic": 3411,
      "constantly": 3412,
      "victi": 3413,
      "slightly": 3414,
      "ahead": 3415,
      "hates": 3416,
      "research": 3417,
      "meat": 3418,
      "restaur": 3419,
      "phr": 3420,
      "weekend": 3421,
      "dumbass": 3422,
      "13": 3423,
      "hid": 3424,
      "lu": 3425,
      "ology": 3426,
      "rip": 3427,
      "potenti": 3428,
      "pper": 3429,
      "condit": 3430,
      "anywhere": 3431,
      "agram": 3432,
      "caused": 3433,
      "sake": 3434,
      "speaking": 3435,
      "particul": 3436,
      "brut": 3437,
      "pathetic": 3438,
      "racism": 3439,
      "hypo": 3440,
      "channel": 3441,
      "flair": 3442,
      "emotional": 3443,
      "competit": 3444,
      "individ": 3445,
      "hosp": 3446,
      "dear": 3447,
      "sports": 3448,
      "divor": 3449,
      "countries": 3450,
      "magic": 3451,
      "handle": 3452,
      "figured": 3453,
      "battle": 3454,
      "decision": 3455,
      "document": 3456,
      "!?": 3457,
      "ians": 3458,
      "onto": 3459,
      "dem": 3460,
      "ssss": 3461,
      "gue": 3462,
      "babies": 3463,
      "corpor": 3464,
      "trip": 3465,
      "pair": 3466,
      "higher": 3467,
      "court": 3468,
      "younger": 3469,
      "mobile": 3470,
      "econ": 3471,
      "mic": 3472,
      "mum": 3473,
      "sand": 3474,
      "tood": 3475,
      "pos": 3476,
      "quar": 3477,
      "everywhere": 3478,
      "glass": 3479,
      "cris": 3480,
      "trolling": 3481,
      "bank": 3482,
      "views": 3483,
      "vision": 3484,
      "perfectly": 3485,
      "written": 3486,
      "further": 3487,
      "therapy": 3488,
      "understood": 3489,
      "coffee": 3490,
      "fro": 3491,
      "hill": 3492,
      "mac": 3493,
      "phe": 3494,
      "pical": 3495,
      "range": 3496,
      "tt": 3497,
      "ale": 3498,
      "nearly": 3499,
      "polic": 3500,
      "mage": 3501,
      "tric": 3502,
      "truck": 3503,
      "comb": 3504,
      "whenever": 3505,
      "pretend": 3506,
      "shitty": 3507,
      "cording": 3508,
      "threat": 3509,
      "brilli": 3510,
      "gift": 3511,
      "innocent": 3512,
      "christmas": 3513,
      "bound": 3514,
      "lone": 3515,
      "mount": 3516,
      "rum": 3517,
      "ances": 3518,
      "alco": 3519,
      "altern": 3520,
      "ager": 3521,
      "pregn": 3522,
      "asshole": 3523,
      "rude": 3524,
      "fired": 3525,
      "enjoying": 3526,
      "logical": 3527,
      "signific": 3528,
      "circle": 3529,
      "directly": 3530,
      "suddenly": 3531,
      "ckey": 3532,
      "fly": 3533,
      "ghost": 3534,
      "pup": 3535,
      "qb": 3536,
      "album": 3537,
      "arms": 3538,
      "rot": 3539,
      "coll": 3540,
      "tire": 3541,
      "delete": 3542,
      "fool": 3543,
      "cheating": 3544,
      "background": 3545,
      "pictures": 3546,
      "floor": 3547,
      "folks": 3548,
      "3rd": 3549,
      "mber": 3550,
      "pd": 3551,
      "webs": 3552,
      "chall": 3553,
      "improve": 3554,
      "offense": 3555,
      "instagram": 3556,
      "virgin": 3557,
      "__": 3558,
      "fill": 3559,
      "tree": 3560,
      "uce": 3561,
      "wro": 3562,
      "alt": 3563,
      "ening": 3564,
      "hockey": 3565,
      "antic": 3566,
      "useless": 3567,
      "finished": 3568,
      "corn": 3569,
      "giant": 3570,
      "author": 3571,
      "opinions": 3572,
      "apologize": 3573,
      "continu": 3574,
      "regardless": 3575,
      "iliar": 3576,
      "beginning": 3577,
      "excell": 3578,
      "private": 3579,
      "wrote": 3580,
      "bers": 3581,
      "dated": 3582,
      "reck": 3583,
      "dom": 3584,
      "terms": 3585,
      "dudes": 3586,
      "shop": 3587,
      "shoes": 3588,
      "shots": 3589,
      "standard": 3590,
      "clue": 3591,
      "learning": 3592,
      "existed": 3593,
      "irony": 3594,
      "spirit": 3595,
      "appear": 3596,
      "]...": 3597,
      "dump": 3598,
      "flow": 3599,
      "nur": 3600,
      "oof": 3601,
      "wers": 3602,
      "ination": 3603,
      "incre": 3604,
      "remain": 3605,
      "lived": 3606,
      "utter": 3607,
      "neck": 3608,
      "tool": 3609,
      "spam": 3610,
      "aff": 3611,
      "kidding": 3612,
      "owner": 3613,
      "audi": 3614,
      "milit": 3615,
      "therapist": 3616,
      "street": 3617,
      "energy": 3618,
      "website": 3619,
      "excellent": 3620,
      "\"[": 3621,
      "bye": 3622,
      "egg": 3623,
      "five": 3624,
      "kne": 3625,
      "rational": 3626,
      "tan": 3627,
      "return": 3628,
      "sold": 3629,
      "master": 3630,
      "freed": 3631,
      "freaking": 3632,
      "added": 3633,
      "champ": 3634,
      "argue": 3635,
      "fixed": 3636,
      "physical": 3637,
      "jersey": 3638,
      "responsible": 3639,
      "beyond": 3640,
      "70": 3641,
      "bird": 3642,
      "ius": 3643,
      "ride": 3644,
      "ston": 3645,
      "soci": 3646,
      "ication": 3647,
      "conven": 3648,
      "ishment": 3649,
      "ruin": 3650,
      "courage": 3651,
      "aked": 3652,
      "intel": 3653,
      "starts": 3654,
      "familiar": 3655,
      "regular": 3656,
      "animal": 3657,
      "cruel": 3658,
      "techn": 3659,
      "pon": 3660,
      "”.": 3661,
      "tho": 3662,
      "forced": 3663,
      "weap": 3664,
      "model": 3665,
      "fet": 3666,
      "plat": 3667,
      "els": 3668,
      "pread": 3669,
      "ahh": 3670,
      "harass": 3671,
      "letting": 3672,
      "create": 3673,
      "cuz": 3674,
      "russia": 3675,
      "counter": 3676,
      "relax": 3677,
      "several": 3678,
      "bic": 3679,
      "image": 3680,
      "nons": 3681,
      "reach": 3682,
      "mee": 3683,
      "roo": 3684,
      "tran": 3685,
      "immedi": 3686,
      "process": 3687,
      "afford": 3688,
      "makeup": 3689,
      "brit": 3690,
      "calls": 3691,
      "draw": 3692,
      "humor": 3693,
      "confirm": 3694,
      "necessary": 3695,
      "involved": 3696,
      "embarrassing": 3697,
      "brilliant": 3698,
      "challen": 3699,
      "ior": 3700,
      "mill": 3701,
      "yay": 3702,
      "🤣🤣": 3703,
      "insur": 3704,
      "besides": 3705,
      "arily": 3706,
      "neither": 3707,
      "female": 3708,
      "terri": 3709,
      "termin": 3710,
      "terror": 3711,
      "ideas": 3712,
      "arded": 3713,
      "helping": 3714,
      "created": 3715,
      "winter": 3716,
      "relate": 3717,
      "advant": 3718,
      "attitude": 3719,
      "ironic": 3720,
      "changes": 3721,
      "score": 3722,
      "drug": 3723,
      "eeeeeeee": 3724,
      "switch": 3725,
      "secure": 3726,
      "credit": 3727,
      "21": 3728,
      "]:": 3729,
      "biz": 3730,
      "iv": 3731,
      "py": 3732,
      "tw": 3733,
      "tour": 3734,
      "wast": 3735,
      "thous": 3736,
      "revol": 3737,
      "stal": 3738,
      "express": 3739,
      "iling": 3740,
      "ously": 3741,
      "typical": 3742,
      "sport": 3743,
      "personality": 3744,
      "mates": 3745,
      "flash": 3746,
      "surprising": 3747,
      "dropped": 3748,
      "population": 3749,
      "specif": 3750,
      "liberal": 3751,
      "satis": 3752,
      "accidentally": 3753,
      "employe": 3754,
      "performan": 3755,
      "dan": 3756,
      "dir": 3757,
      "fc": 3758,
      "ga": 3759,
      "gf": 3760,
      "gig": 3761,
      "nes": 3762,
      "ooh": 3763,
      "sof": 3764,
      "spread": 3765,
      "infor": 3766,
      "arrest": 3767,
      "mod": 3768,
      "dev": 3769,
      "oper": 3770,
      "trave": 3771,
      "commer": 3772,
      "perspe": 3773,
      "careful": 3774,
      "heads": 3775,
      "phones": 3776,
      "valu": 3777,
      "netfli": 3778,
      "usual": 3779,
      "graph": 3780,
      "russian": 3781,
      "netflix": 3782,
      "^(": 3783,
      "pill": 3784,
      "swee": 3785,
      "ints": 3786,
      "ano": 3787,
      "chie": 3788,
      "usa": 3789,
      "ushed": 3790,
      "igning": 3791,
      "monster": 3792,
      "cars": 3793,
      "driver": 3794,
      "actions": 3795,
      "chicken": 3796,
      "hospital": 3797,
      "freedom": 3798,
      "dm": 3799,
      "skills": 3800,
      "belong": 3801,
      "separ": 3802,
      "activ": 3803,
      "according": 3804,
      "motiv": 3805,
      "demon": 3806,
      "worries": 3807,
      "program": 3808,
      "raise": 3809,
      "epic": 3810,
      "surely": 3811,
      "spee": 3812,
      "delus": 3813,
      "discussion": 3814,
      "opportunity": 3815,
      "bizar": 3816,
      "eli": 3817,
      "init": 3818,
      "core": 3819,
      "immig": 3820,
      "atest": 3821,
      "entit": 3822,
      "herself": 3823,
      "ahhh": 3824,
      "qual": 3825,
      "quie": 3826,
      "grew": 3827,
      "greatest": 3828,
      "harm": 3829,
      "finan": 3830,
      "buying": 3831,
      "ruined": 3832,
      "brand": 3833,
      "horri": 3834,
      "moral": 3835,
      "aaa": 3836,
      "listening": 3837,
      "concern": 3838,
      "grown": 3839,
      "texas": 3840,
      "intention": 3841,
      "san": 3842,
      "anarch": 3843,
      "ites": 3844,
      "alth": 3845,
      "named": 3846,
      "wealth": 3847,
      "adults": 3848,
      "pool": 3849,
      "manage": 3850,
      "sche": 3851,
      "surv": 3852,
      "signed": 3853,
      "fairly": 3854,
      "building": 3855,
      "education": 3856,
      "security": 3857,
      "23": 3858,
      "35": 3859,
      "fru": 3860,
      "ogy": 3861,
      "orange": 3862,
      "wide": 3863,
      "weir": 3864,
      "gered": 3865,
      "delet": 3866,
      "ppy": 3867,
      "exists": 3868,
      "standing": 3869,
      "ffs": 3870,
      "gym": 3871,
      "ification": 3872,
      "depend": 3873,
      "apologies": 3874,
      "triggered": 3875,
      "desperate": 3876,
      "entertaining": 3877,
      "frustrating": 3878,
      "nonsense": 3879,
      "specifically": 3880,
      "austr": 3881,
      "fou": 3882,
      "jan": 3883,
      "tweet": 3884,
      "anch": 3885,
      "meta": 3886,
      "held": 3887,
      "detail": 3888,
      "scar": 3889,
      "showed": 3890,
      "legend": 3891,
      "genius": 3892,
      "guessing": 3893,
      "lawyer": 3894,
      "picked": 3895,
      "closer": 3896,
      "film": 3897,
      "sugge": 3898,
      "hung": 3899,
      "insult": 3900,
      "target": 3901,
      "appropriate": 3902,
      "policy": 3903,
      "alcohol": 3904,
      "austral": 3905,
      "bble": 3906,
      "hits": 3907,
      "lab": 3908,
      "punch": 3909,
      "sac": 3910,
      "rely": 3911,
      "chuck": 3912,
      "cance": 3913,
      "rain": 3914,
      "selfish": 3915,
      "fied": 3916,
      "frame": 3917,
      "confidence": 3918,
      "joking": 3919,
      "injured": 3920,
      "chicago": 3921,
      "individual": 3922,
      "military": 3923,
      "thousand": 3924,
      "perspective": 3925,
      "45": 3926,
      "4th": 3927,
      "bay": 3928,
      "kers": 3929,
      "size": 3930,
      "meal": 3931,
      "itar": 3932,
      "lican": 3933,
      "holi": 3934,
      "cow": 3935,
      "comedy": 3936,
      "memory": 3937,
      "solution": 3938,
      "douche": 3939,
      "bottle": 3940,
      "songs": 3941,
      "liberals": 3942,
      "petty": 3943,
      "complaining": 3944,
      "physically": 3945,
      "whether": 3946,
      "billion": 3947,
      "basketball": 3948,
      "insurance": 3949,
      "speech": 3950,
      "bid": 3951,
      "dance": 3952,
      "tat": 3953,
      "domin": 3954,
      "hook": 3955,
      "bling": 3956,
      "mature": 3957,
      "border": 3958,
      "satire": 3959,
      "bathroom": 3960,
      "podcast": 3961,
      "potential": 3962,
      "quiet": 3963,
      "suggestion": 3964,
      "naz": 3965,
      "sne": 3966,
      "yed": 3967,
      "ino": 3968,
      "repost": 3969,
      "idge": 3970,
      "role": 3971,
      "justice": 3972,
      "ups": 3973,
      "upvotes": 3974,
      "exe": 3975,
      "voc": 3976,
      "shock": 3977,
      "bio": 3978,
      "refs": 3979,
      "properly": 3980,
      "product": 3981,
      "bizarre": 3982,
      "deleted": 3983,
      "ik": 3984,
      "var": 3985,
      "meth": 3986,
      "icing": 3987,
      "ida": 3988,
      "poly": 3989,
      "grab": 3990,
      "sitive": 3991,
      "......": 3992,
      "2020": 3993,
      "window": 3994,
      "relationships": 3995,
      "claims": 3996,
      "impact": 3997,
      "promise": 3998,
      "citiz": 3999,
      "divorce": 4000,
      "technically": 4001,
      "fying": 4002,
      "sw": 4003,
      "tank": 4004,
      "meas": 4005,
      "cep": 4006,
      "upon": 4007,
      "explan": 4008,
      "cape": 4009,
      "prop": 4010,
      "saving": 4011,
      "lazy": 4012,
      "offended": 4013,
      "poster": 4014,
      "grade": 4015,
      "glor": 4016,
      "cream": 4017,
      "brex": 4018,
      "bloody": 4019,
      "falling": 4020,
      "filled": 4021,
      "distur": 4022,
      "property": 4023,
      "copy": 4024,
      "dinner": 4025,
      "restaurant": 4026,
      "immediately": 4027,
      "email": 4028,
      "glo": 4029,
      "gay": 4030,
      "jack": 4031,
      "sending": 4032,
      "swear": 4033,
      "wub": 4034,
      "thes": 4035,
      "pol": 4036,
      "concept": 4037,
      "scare": 4038,
      "miser": 4039,
      "foreign": 4040,
      "corrup": 4041,
      "horror": 4042,
      "euro": 4043,
      "result": 4044,
      "lmfa": 4045,
      "delusional": 4046,
      "\"?": 4047,
      "lately": 4048,
      "passed": 4049,
      "wars": 4050,
      "stress": 4051,
      "moments": 4052,
      "button": 4053,
      "matters": 4054,
      "primar": 4055,
      "release": 4056,
      "pathy": 4057,
      "finger": 4058,
      "mirror": 4059,
      "pregnant": 4060,
      "wubwub": 4061,
      "500": 4062,
      "backs": 4063,
      "cum": 4064,
      "cket": 4065,
      "dang": 4066,
      "kk": 4067,
      "repor": 4068,
      "ators": 4069,
      "ene": 4070,
      "below": 4071,
      "cos": 4072,
      "coin": 4073,
      "sue": 4074,
      "max": 4075,
      "conspir": 4076,
      "wanting": 4077,
      "lesson": 4078,
      "brings": 4079,
      "suppose": 4080,
      "insul": 4081,
      "environ": 4082,
      "lonely": 4083,
      "advantage": 4084,
      "fren": 4085,
      "gent": 4086,
      "ounce": 4087,
      "ana": 4088,
      "becoming": 4089,
      "loser": 4090,
      "ached": 4091,
      "ades": 4092,
      "holes": 4093,
      "teeth": 4094,
      "odes": 4095,
      "provid": 4096,
      "whoever": 4097,
      "manip": 4098,
      "spic": 4099,
      "minim": 4100,
      "ference": 4101,
      "insight": 4102,
      "nerv": 4103,
      "brave": 4104,
      "freak": 4105,
      "ironically": 4106,
      "photos": 4107,
      "camp": 4108,
      "split": 4109,
      "brutal": 4110,
      "*.": 4111,
      "cash": 4112,
      "mut": 4113,
      "ow": 4114,
      "omy": 4115,
      "pink": 4116,
      "pants": 4117,
      "swi": 4118,
      "sight": 4119,
      "thus": 4120,
      "replace": 4121,
      "ises": 4122,
      "ley": 4123,
      "asha": 4124,
      "goals": 4125,
      "united": 4126,
      "tray": 4127,
      "excl": 4128,
      "predic": 4129,
      "scum": 4130,
      "dislike": 4131,
      "matic": 4132,
      "aww": 4133,
      "horse": 4134,
      "flat": 4135,
      "versity": 4136,
      "effe": 4137,
      "changing": 4138,
      "libertar": 4139,
      "drinking": 4140,
      "chances": 4141,
      "stealing": 4142,
      "results": 4143,
      "students": 4144,
      "narc": 4145,
      "sarcast": 4146,
      "normally": 4147,
      "dirty": 4148,
      "inity": 4149,
      "lower": 4150,
      "friendly": 4151,
      "mater": 4152,
      "chose": 4153,
      "religious": 4154,
      "clothes": 4155,
      "screw": 4156,
      "leading": 4157,
      "strugg": 4158,
      "practice": 4159,
      "bastard": 4160,
      "crowd": 4161,
      "referring": 4162,
      "british": 4163,
      "performance": 4164,
      "commercial": 4165,
      "explanation": 4166,
      "\",": 4167,
      ".)": 4168,
      "dies": 4169,
      "rout": 4170,
      "😤😤": 4171,
      "topic": 4172,
      "ork": 4173,
      "sole": 4174,
      "ache": 4175,
      "ider": 4176,
      "mods": 4177,
      "tery": 4178,
      "map": 4179,
      "agno": 4180,
      "proje": 4181,
      "indust": 4182,
      "hire": 4183,
      "cali": 4184,
      "definition": 4185,
      "defensive": 4186,
      "prime": 4187,
      "politic": 4188,
      "2016": 4189,
      "daddy": 4190,
      "episodes": 4191,
      "leader": 4192,
      "scenario": 4193,
      "debate": 4194,
      "homopho": 4195,
      "gorge": 4196,
      "impressive": 4197,
      "mountain": 4198,
      "meeting": 4199,
      "challenge": 4200,
      "24": 4201,
      "iq": 4202,
      "tiny": 4203,
      "hah": 4204,
      "haps": 4205,
      "lif": 4206,
      "trail": 4207,
      "consu": 4208,
      "spin": 4209,
      "offensive": 4210,
      "fuckin": 4211,
      "civil": 4212,
      "downvotes": 4213,
      "commenting": 4214,
      "shower": 4215,
      "surger": 4216,
      "basic": 4217,
      "venge": 4218,
      "flor": 4219,
      "mission": 4220,
      "hitting": 4221,
      "explaining": 4222,
      "donal": 4223,
      "campa": 4224,
      "majority": 4225,
      "fingers": 4226,
      "screaming": 4227,
      "dollars": 4228,
      "ashamed": 4229,
      "dred": 4230,
      "fits": 4231,
      "gate": 4232,
      "plot": 4233,
      "slo": 4234,
      "sses": 4235,
      "inary": 4236,
      "stone": 4237,
      "stun": 4238,
      "heck": 4239,
      "liv": 4240,
      "cher": 4241,
      "thern": 4242,
      "provide": 4243,
      "guard": 4244,
      "bomb": 4245,
      "percent": 4246,
      "disrespect": 4247,
      "hip": 4248,
      "survi": 4249,
      "quest": 4250,
      "memories": 4251,
      "strate": 4252,
      "parties": 4253,
      "jective": 4254,
      "explains": 4255,
      "casm": 4256,
      "disappointing": 4257,
      "taxes": 4258,
      "violence": 4259,
      "retarded": 4260,
      "journal": 4261,
      "location": 4262,
      "lmfao": 4263,
      "'.": 4264,
      "ather": 4265,
      "nation": 4266,
      "pul": 4267,
      "reject": 4268,
      "ament": 4269,
      "identi": 4270,
      "opti": 4271,
      "perhaps": 4272,
      "spending": 4273,
      "overall": 4274,
      "iles": 4275,
      "gling": 4276,
      "apple": 4277,
      "wondered": 4278,
      "unfortunate": 4279,
      "including": 4280,
      "modern": 4281,
      "thrown": 4282,
      "believable": 4283,
      "investig": 4284,
      "data": 4285,
      "phrase": 4286,
      "corporate": 4287,
      "hungry": 4288,
      "nervous": 4289,
      "sarcastic": 4290,
      "gorgeous": 4291,
      "aim": 4292,
      "gang": 4293,
      "ml": 4294,
      "tl": 4295,
      "thr": 4296,
      "remo": 4297,
      "aries": 4298,
      "aches": 4299,
      "suspect": 4300,
      "options": 4301,
      "rub": 4302,
      "minis": 4303,
      "bron": 4304,
      "puts": 4305,
      "goddamn": 4306,
      "planning": 4307,
      "planet": 4308,
      "visible": 4309,
      "levels": 4310,
      "ignorance": 4311,
      "smoke": 4312,
      "democracy": 4313,
      "flex": 4314,
      "federal": 4315,
      "sarcasm": 4316,
      "sweat": 4317,
      "demand": 4318,
      "immigr": 4319,
      "florida": 4320,
      "flying": 4321,
      "gal": 4322,
      "nc": 4323,
      "pump": 4324,
      "rise": 4325,
      "retire": 4326,
      "lean": 4327,
      "ashed": 4328,
      "wered": 4329,
      "pee": 4330,
      "useful": 4331,
      "indic": 4332,
      "prepared": 4333,
      "mentally": 4334,
      "diagno": 4335,
      "matches": 4336,
      "breath": 4337,
      "drama": 4338,
      "treated": 4339,
      "cycle": 4340,
      "arguing": 4341,
      "situations": 4342,
      "experien": 4343,
      "articles": 4344,
      "salty": 4345,
      "emotions": 4346,
      "following": 4347,
      "ladies": 4348,
      "steps": 4349,
      "fantasy": 4350,
      "unique": 4351,
      "crush": 4352,
      "wedding": 4353,
      "screenshot": 4354,
      "necessarily": 4355,
      "pushing": 4356,
      "recei": 4357,
      "machine": 4358,
      "customers": 4359,
      "entitled": 4360,
      "execut": 4361,
      "bac": 4362,
      "dun": 4363,
      "dum": 4364,
      "mild": 4365,
      "tun": 4366,
      "insp": 4367,
      "inated": 4368,
      "ante": 4369,
      "error": 4370,
      "toile": 4371,
      "stren": 4372,
      "beard": 4373,
      "accom": 4374,
      "rome": 4375,
      "depressed": 4376,
      "degree": 4377,
      "shif": 4378,
      "contribut": 4379,
      "talked": 4380,
      "marry": 4381,
      "sexist": 4382,
      "deserved": 4383,
      "faces": 4384,
      "supporting": 4385,
      "praying": 4386,
      "six": 4387,
      "previous": 4388,
      "guilty": 4389,
      "glorious": 4390,
      "hr": 4391,
      "ially": 4392,
      "ka": 4393,
      "vac": 4394,
      "inti": 4395,
      "theory": 4396,
      "ali": 4397,
      "becomes": 4398,
      "usted": 4399,
      "decl": 4400,
      "shat": 4401,
      "condo": 4402,
      "plate": 4403,
      "compre": 4404,
      "project": 4405,
      "goodness": 4406,
      "woke": 4407,
      "kings": 4408,
      "turning": 4409,
      "breaks": 4410,
      "craft": 4411,
      "picks": 4412,
      "choices": 4413,
      "beauty": 4414,
      "dealing": 4415,
      "ressed": 4416,
      "salt": 4417,
      "clip": 4418,
      "golden": 4419,
      "universe": 4420,
      "anxious": 4421,
      "failure": 4422,
      "depressing": 4423,
      "suffering": 4424,
      "heaven": 4425,
      "victim": 4426,
      "compreh": 4427,
      "bun": 4428,
      "lane": 4429,
      "nn": 4430,
      "ners": 4431,
      "va": 4432,
      "zone": 4433,
      "relie": 4434,
      "ani": 4435,
      "stit": 4436,
      "asing": 4437,
      "anda": 4438,
      "among": 4439,
      "ads": 4440,
      "trump": 4441,
      "plans": 4442,
      "aggressive": 4443,
      "boi": 4444,
      "boss": 4445,
      "cheat": 4446,
      "function": 4447,
      "luckily": 4448,
      "legally": 4449,
      "obsess": 4450,
      "solved": 4451,
      "poorly": 4452,
      "worthy": 4453,
      "socialism": 4454,
      "hundred": 4455,
      "election": 4456,
      "attacked": 4457,
      "describe": 4458,
      "coaching": 4459,
      "trigger": 4460,
      "benefit": 4461,
      "soft": 4462,
      "conspiracy": 4463,
      "effective": 4464,
      "cise": 4465,
      "irel": 4466,
      "lunch": 4467,
      "tall": 4468,
      "vent": 4469,
      "remove": 4470,
      "island": 4471,
      "nose": 4472,
      "beating": 4473,
      "abusive": 4474,
      "plant": 4475,
      "progress": 4476,
      "everytime": 4477,
      "lap": 4478,
      "worker": 4479,
      "bug": 4480,
      "via": 4481,
      "parano": 4482,
      "attacks": 4483,
      "2018": 4484,
      "referen": 4485,
      "successful": 4486,
      "nuts": 4487,
      "honor": 4488,
      "pleasure": 4489,
      "destroyed": 4490,
      ":-)": 4491,
      "convinc": 4492,
      "assault": 4493,
      "employees": 4494,
      "tattoo": 4495,
      "brexit": 4496,
      "campaign": 4497,
      "ireland": 4498,
      ".*": 4499,
      "?)": 4500,
      "fash": 4501,
      "gth": 4502,
      "pil": 4503,
      "rend": 4504,
      "repub": 4505,
      "acle": 4506,
      "pets": 4507,
      "defe": 4508,
      "ceed": 4509,
      "yellow": 4510,
      "ulate": 4511,
      "angers": 4512,
      "phy": 4513,
      "charged": 4514,
      "sym": 4515,
      "straw": 4516,
      "^^^^": 4517,
      "bait": 4518,
      "occas": 4519,
      "sleeping": 4520,
      "supporters": 4521,
      "confirmed": 4522,
      "student": 4523,
      "conservative": 4524,
      "heavy": 4525,
      "millen": 4526,
      "pac": 4527,
      "zen": 4528,
      "mes": 4529,
      "lest": 4530,
      "aside": 4531,
      "heat": 4532,
      "former": 4533,
      "goat": 4534,
      "addit": 4535,
      "moves": 4536,
      "delight": 4537,
      "devil": 4538,
      "tea": 4539,
      "boat": 4540,
      "stock": 4541,
      "downvoting": 4542,
      "subject": 4543,
      "incel": 4544,
      "incels": 4545,
      "turkey": 4546,
      "nature": 4547,
      "develop": 4548,
      "pressure": 4549,
      "candid": 4550,
      "fruit": 4551,
      "toilet": 4552,
      "cti": 4553,
      "vp": 4554,
      "wine": 4555,
      "insecure": 4556,
      "metal": 4557,
      "mexic": 4558,
      "ony": 4559,
      "alot": 4560,
      "became": 4561,
      "sets": 4562,
      "access": 4563,
      "union": 4564,
      "caked": 4565,
      "fox": 4566,
      "sauce": 4567,
      "saints": 4568,
      "mug": 4569,
      "buff": 4570,
      "spelling": 4571,
      "shocking": 4572,
      "blat": 4573,
      "finds": 4574,
      "medic": 4575,
      "stupidity": 4576,
      "staying": 4577,
      "mmmm": 4578,
      "chair": 4579,
      "opening": 4580,
      "spoil": 4581,
      "generation": 4582,
      "patch": 4583,
      "osity": 4584,
      "snap": 4585,
      "bench": 4586,
      "sensitive": 4587,
      "violent": 4588,
      "introdu": 4589,
      "condition": 4590,
      "exclusive": 4591,
      "cakeday": 4592,
      "]\"": 4593,
      "hall": 4594,
      "ox": 4595,
      "sin": 4596,
      "twee": 4597,
      "ww": 4598,
      "reve": 4599,
      "revenge": 4600,
      "isra": 4601,
      "stars": 4602,
      "dos": 4603,
      "ays": 4604,
      "advert": 4605,
      "uts": 4606,
      "temp": 4607,
      "artist": 4608,
      "scor": 4609,
      "essenti": 4610,
      "realistic": 4611,
      "killer": 4612,
      "franch": 4613,
      "threads": 4614,
      "passing": 4615,
      "healthcare": 4616,
      "curiosity": 4617,
      "mption": 4618,
      "distance": 4619,
      "panic": 4620,
      "engage": 4621,
      "bruh": 4622,
      "econom": 4623,
      "propag": 4624,
      "surgery": 4625,
      "accompl": 4626,
      "republican": 4627,
      "22": 4628,
      "65": 4629,
      "dish": 4630,
      "ears": 4631,
      "gle": 4632,
      "jap": 4633,
      "kiss": 4634,
      "shad": 4635,
      "thin": 4636,
      "income": 4637,
      "inating": 4638,
      "sters": 4639,
      "stret": 4640,
      "staff": 4641,
      "asle": 4642,
      "edge": 4643,
      "loop": 4644,
      "locked": 4645,
      "uncle": 4646,
      "acts": 4647,
      "boob": 4648,
      "gotcha": 4649,
      "cheaper": 4650,
      "badass": 4651,
      "stole": 4652,
      "parts": 4653,
      "brows": 4654,
      "elected": 4655,
      "acceptable": 4656,
      "embarrassed": 4657,
      "enemy": 4658,
      "french": 4659,
      "material": 4660,
      "ji": 4661,
      "lun": 4662,
      "mart": 4663,
      "nit": 4664,
      "nfl": 4665,
      "uber": 4666,
      "vag": 4667,
      "independ": 4668,
      "messed": 4669,
      "haw": 4670,
      "soooo": 4671,
      "rolling": 4672,
      "unexpected": 4673,
      "imply": 4674,
      "...?": 4675,
      "comic": 4676,
      "guar": 4677,
      "bored": 4678,
      "woah": 4679,
      "everyday": 4680,
      "rush": 4681,
      "ffic": 4682,
      "hurting": 4683,
      "appreciated": 4684,
      "compli": 4685,
      "remindme": 4686,
      "capable": 4687,
      "profit": 4688,
      "dreams": 4689,
      "mistakes": 4690,
      "decisions": 4691,
      "atures": 4692,
      "fashion": 4693,
      "bour": 4694,
      "cous": 4695,
      "dc": 4696,
      "dl": 4697,
      "hl": 4698,
      "rab": 4699,
      "sens": 4700,
      "inct": 4701,
      "stre": 4702,
      "raised": 4703,
      "managed": 4704,
      "ourselves": 4705,
      "laid": 4706,
      "distr": 4707,
      "olds": 4708,
      "march": 4709,
      "study": 4710,
      "seasons": 4711,
      "charge": 4712,
      "bias": 4713,
      "drivers": 4714,
      "training": 4715,
      "particular": 4716,
      "convenient": 4717,
      "intellig": 4718,
      "australia": 4719,
      "europe": 4720,
      "donald": 4721,
      "propaganda": 4722,
      "bby": 4723,
      "cul": 4724,
      "center": 4725,
      "dry": 4726,
      "ered": 4727,
      "hic": 4728,
      "hence": 4729,
      "kis": 4730,
      "lat": 4731,
      "nite": 4732,
      "phi": 4733,
      "tori": 4734,
      "solo": 4735,
      "accent": 4736,
      "weather": 4737,
      "outs": 4738,
      "outta": 4739,
      "trum": 4740,
      "urs": 4741,
      "tooth": 4742,
      "served": 4743,
      "apply": 4744,
      "worrying": 4745,
      "instantly": 4746,
      "existence": 4747,
      "filming": 4748,
      "refuse": 4749,
      "sources": 4750,
      "elec": 4751,
      "ultimate": 4752,
      "constru": 4753,
      "smoo": 4754,
      "smoking": 4755,
      "ville": 4756,
      "slowly": 4757,
      "mixed": 4758,
      "limited": 4759,
      "twist": 4760,
      "nazi": 4761,
      "disturbing": 4762,
      "strength": 4763,
      "asleep": 4764,
      "guarante": 4765,
      "dits": 4766,
      "eper": 4767,
      "jam": 4768,
      "sive": 4769,
      "signing": 4770,
      "😭😭": 4771,
      "thy": 4772,
      "meh": 4773,
      "ids": 4774,
      "advoc": 4775,
      "chy": 4776,
      "sucked": 4777,
      "somewhat": 4778,
      "consent": 4779,
      "consequ": 4780,
      "inder": 4781,
      "fund": 4782,
      "intense": 4783,
      "downtown": 4784,
      "blast": 4785,
      "hardly": 4786,
      "members": 4787,
      "caring": 4788,
      "exciting": 4789,
      "bringing": 4790,
      "murdered": 4791,
      "abortion": 4792,
      "announ": 4793,
      "revolution": 4794,
      "environment": 4795,
      "remote": 4796,
      "pillow": 4797,
      "cities": 4798,
      "dates": 4799,
      "ots": 4800,
      "oops": 4801,
      "ray": 4802,
      "thick": 4803,
      "stats": 4804,
      "ened": 4805,
      "progressive": 4806,
      "whose": 4807,
      "foc": 4808,
      "fortnite": 4809,
      "handsome": 4810,
      "runs": 4811,
      "furi": 4812,
      "bigot": 4813,
      "arguments": 4814,
      "responding": 4815,
      "milk": 4816,
      "hype": 4817,
      "listened": 4818,
      "faster": 4819,
      "growing": 4820,
      "heroes": 4821,
      "include": 4822,
      "hmmm": 4823,
      "capitalism": 4824,
      "00000000": 4825,
      "champion": 4826,
      "weapon": 4827,
      "dall": 4828,
      "fw": 4829,
      "ium": 4830,
      "native": 4831,
      "pin": 4832,
      "pound": 4833,
      "sno": 4834,
      "react": 4835,
      "aling": 4836,
      "selling": 4837,
      "amend": 4838,
      "hopes": 4839,
      "justify": 4840,
      "ifying": 4841,
      "nowhere": 4842,
      "plastic": 4843,
      "exual": 4844,
      "tage": 4845,
      "reads": 4846,
      "stor": 4847,
      "stomach": 4848,
      "disorder": 4849,
      "serve": 4850,
      "stands": 4851,
      "standards": 4852,
      "believes": 4853,
      "horrifying": 4854,
      "pulling": 4855,
      "movement": 4856,
      "healing": 4857,
      "regul": 4858,
      "compan": 4859,
      "scot": 4860,
      "hunting": 4861,
      "university": 4862,
      "costs": 4863,
      "hanging": 4864,
      "kicked": 4865,
      "require": 4866,
      "wishes": 4867,
      "knee": 4868,
      "financial": 4869,
      "anime": 4870,
      "franchise": 4871,
      "smooth": 4872,
      "dallas": 4873,
      "bis": 4874,
      "east": 4875,
      "lin": 4876,
      "nia": 4877,
      "york": 4878,
      "stance": 4879,
      "sees": 4880,
      "whining": 4881,
      "..*": 4882,
      "rook": 4883,
      "coast": 4884,
      "tier": 4885,
      "abl": 4886,
      "oppress": 4887,
      "tele": 4888,
      "combo": 4889,
      "urb": 4890,
      "seek": 4891,
      "perman": 4892,
      "scrat": 4893,
      "spider": 4894,
      "glasses": 4895,
      "apped": 4896,
      "corre": 4897,
      "smash": 4898,
      "picking": 4899,
      "elsewhere": 4900,
      "frank": 4901,
      "germany": 4902,
      "frequ": 4903,
      "address": 4904,
      "sooner": 4905,
      "1000": 4906,
      "profile": 4907,
      "cases": 4908,
      "insults": 4909,
      "legitim": 4910,
      "doctors": 4911,
      "threw": 4912,
      "washing": 4913,
      "significant": 4914,
      "narciss": 4915,
      "-[": 4916,
      "aunt": 4917,
      "cig": 4918,
      "uary": 4919,
      "vax": 4920,
      "stab": 4921,
      "org": 4922,
      "hest": 4923,
      "edited": 4924,
      "keys": 4925,
      "web": 4926,
      "geno": 4927,
      "pear": 4928,
      "tie": 4929,
      "impressed": 4930,
      "reddits": 4931,
      "pron": 4932,
      "restimate": 4933,
      "buzz": 4934,
      "talks": 4935,
      "underrated": 4936,
      "trolls": 4937,
      "flame": 4938,
      "decade": 4939,
      "confident": 4940,
      "regis": 4941,
      "respond": 4942,
      "muscle": 4943,
      "satur": 4944,
      "canadian": 4945,
      "kitty": 4946,
      "alternative": 4947,
      "survive": 4948,
      "details": 4949,
      "minimum": 4950,
      "27": 4951,
      "bread": 4952,
      "ival": 4953,
      "len": 4954,
      "nam": 4955,
      "sch": 4956,
      "sque": 4957,
      "tac": 4958,
      "tum": 4959,
      "onic": 4960,
      "bell": 4961,
      "edgy": 4962,
      "liz": 4963,
      "gods": 4964,
      "wet": 4965,
      "detro": 4966,
      "math": 4967,
      "shout": 4968,
      "concl": 4969,
      "pls": 4970,
      "compet": 4971,
      "thered": 4972,
      "raped": 4973,
      "illa": 4974,
      "hardest": 4975,
      "funn": 4976,
      "realise": 4977,
      "desk": 4978,
      "obliv": 4979,
      "trend": 4980,
      "tongue": 4981,
      "prior": 4982,
      "cutting": 4983,
      "gging": 4984,
      "pasta": 4985,
      "communic": 4986,
      "smaller": 4987,
      "released": 4988,
      "constit": 4989,
      "ignoring": 4990,
      "ranked": 4991,
      "loaded": 4992,
      "circum": 4993,
      "england": 4994,
      "criminal": 4995,
      "documentary": 4996,
      "arrested": 4997,
      "belongs": 4998,
      "([": 4999,
      "ease": 5000,
      "fart": 5001,
      "gag": 5002,
      "kni": 5003,
      "lf": 5004,
      "las": 5005,
      "wound": 5006,
      "inf": 5007,
      "reward": 5008,
      "itive": 5009,
      "lets": 5010,
      "lection": 5011,
      "beast": 5012,
      "beach": 5013,
      "vehic": 5014,
      "lyn": 5015,
      "arri": 5016,
      "doc": 5017,
      "actor": 5018,
      "unde": 5019,
      "moon": 5020,
      "fest": 5021,
      "oppon": 5022,
      "boot": 5023,
      "happier": 5024,
      "stopping": 5025,
      "prices": 5026,
      "disney": 5027,
      "spell": 5028,
      "breed": 5029,
      "solve": 5030,
      "empathy": 5031,
      "autism": 5032,
      "warning": 5033,
      "humanity": 5034,
      "reminded": 5035,
      "tested": 5036,
      "climate": 5037,
      "sugar": 5038,
      "punishment": 5039,
      "roads": 5040,
      "reported": 5041,
      "oooooooooooooooo": 5042,
      "struct": 5043,
      "injuries": 5044,
      "libertarian": 5045,
      "knife": 5046,
      "26": 5047,
      "95": 5048,
      "bone": 5049,
      "bits": 5050,
      "cc": 5051,
      "jac": 5052,
      "skill": 5053,
      "whel": 5054,
      "ert": 5055,
      "encourage": 5056,
      "loy": 5057,
      "lick": 5058,
      "poop": 5059,
      "polar": 5060,
      "oph": 5061,
      "enders": 5062,
      "precious": 5063,
      "ours": 5064,
      "span": 5065,
      "offseason": 5066,
      "ures": 5067,
      "bucks": 5068,
      "server": 5069,
      "cling": 5070,
      "winner": 5071,
      "amazon": 5072,
      "possibility": 5073,
      "????": 5074,
      "schools": 5075,
      "medio": 5076,
      "click": 5077,
      "replying": 5078,
      "transl": 5079,
      "equally": 5080,
      "script": 5081,
      "democratic": 5082,
      "slam": 5083,
      "discuss": 5084,
      "kitch": 5085,
      "organization": 5086,
      "competitive": 5087,
      "crisis": 5088,
      "increase": 5089,
      "fetish": 5090,
      "informed": 5091,
      "separate": 5092,
      "elimin": 5093,
      "insulting": 5094,
      "convinced": 5095,
      "legitimately": 5096,
      "genoc": 5097,
      "bright": 5098,
      "cunt": 5099,
      "fab": 5100,
      "hating": 5101,
      "iir": 5102,
      "tin": 5103,
      "uel": 5104,
      "xious": 5105,
      "reli": 5106,
      "request": 5107,
      "noxious": 5108,
      "bears": 5109,
      "betray": 5110,
      "vere": 5111,
      "army": 5112,
      "logo": 5113,
      "absur": 5114,
      "suspic": 5115,
      "butter": 5116,
      "irrit": 5117,
      "mast": 5118,
      "updated": 5119,
      "blessed": 5120,
      "chest": 5121,
      "discord": 5122,
      "oooh": 5123,
      "bubble": 5124,
      "honey": 5125,
      "bridge": 5126,
      "tells": 5127,
      "obnoxious": 5128,
      "farm": 5129,
      "famous": 5130,
      "cried": 5131,
      "communism": 5132,
      "powerful": 5133,
      "donate": 5134,
      "occur": 5135,
      "silver": 5136,
      "legitimate": 5137,
      "awareness": 5138,
      "dollar": 5139,
      "vagina": 5140,
      "detroit": 5141,
      "iirc": 5142,
      "),": 5143,
      "++": 5144,
      "dut": 5145,
      "fare": 5146,
      "mun": 5147,
      "nap": 5148,
      "tons": 5149,
      "ume": 5150,
      "wreck": 5151,
      "recor": 5152,
      "alty": 5153,
      "coinc": 5154,
      "myster": 5155,
      "irrelevant": 5156,
      "dece": 5157,
      "trap": 5158,
      "upvoted": 5159,
      "impro": 5160,
      "exper": 5161,
      "agger": 5162,
      "evol": 5163,
      "pretending": 5164,
      "honesty": 5165,
      "nights": 5166,
      "budget": 5167,
      "messages": 5168,
      "followed": 5169,
      "atory": 5170,
      "pieces": 5171,
      "establ": 5172,
      "ascul": 5173,
      "flip": 5174,
      "equal": 5175,
      "brig": 5176,
      "fascinating": 5177,
      "nightmares": 5178,
      "believing": 5179,
      "conservatives": 5180,
      "connect": 5181,
      "hidden": 5182,
      "foul": 5183,
      "inspired": 5184,
      "effic": 5185,
      "gm": 5186,
      "links": 5187,
      "nba": 5188,
      "shave": 5189,
      "xx": 5190,
      "anced": 5191,
      "format": 5192,
      "code": 5193,
      "tight": 5194,
      "aband": 5195,
      "nets": 5196,
      "depart": 5197,
      "ppers": 5198,
      "agent": 5199,
      "proven": 5200,
      "protest": 5201,
      "goodbye": 5202,
      "therefore": 5203,
      "answers": 5204,
      "relative": 5205,
      "decades": 5206,
      "license": 5207,
      "passion": 5208,
      "services": 5209,
      "groups": 5210,
      "bullet": 5211,
      "supportive": 5212,
      "grandma": 5213,
      "educated": 5214,
      "effects": 5215,
      "cooking": 5216,
      "recognize": 5217,
      "celebrate": 5218,
      "birds": 5219,
      "ivity": 5220,
      "satisfying": 5221,
      "miserable": 5222,
      "consequences": 5223,
      "remotely": 5224,
      "dor": 5225,
      "eld": 5226,
      "pn": 5227,
      "pushed": 5228,
      "tinder": 5229,
      "wage": 5230,
      "incorrect": 5231,
      "ona": 5232,
      "loose": 5233,
      "forgive": 5234,
      "icy": 5235,
      "rob": 5236,
      "timing": 5237,
      "chase": 5238,
      "yelling": 5239,
      "india": 5240,
      "types": 5241,
      "lake": 5242,
      "spit": 5243,
      "izes": 5244,
      "kinds": 5245,
      "pointless": 5246,
      "surround": 5247,
      "steel": 5248,
      "wishing": 5249,
      "cursed": 5250,
      "childhood": 5251,
      "walked": 5252,
      "expectations": 5253,
      "drawing": 5254,
      "resour": 5255,
      "falls": 5256,
      "clai": 5257,
      "stronger": 5258,
      "closed": 5259,
      "socialist": 5260,
      "identity": 5261,
      "volume": 5262,
      "linked": 5263,
      "employ": 5264,
      "bags": 5265,
      "official": 5266,
      "traded": 5267,
      "journey": 5268,
      "talented": 5269,
      "experienced": 5270,
      "implying": 5271,
      "rookie": 5272,
      "saturday": 5273,
      "*[": 5274,
      "dash": 5275,
      "ego": 5276,
      "emer": 5277,
      "mama": 5278,
      "pad": 5279,
      "pig": 5280,
      "sb": 5281,
      "ured": 5282,
      "🦀🦀": 5283,
      "atable": 5284,
      "attemp": 5285,
      "itor": 5286,
      "station": 5287,
      "stated": 5288,
      "habit": 5289,
      "lip": 5290,
      "washed": 5291,
      "tel": 5292,
      "shield": 5293,
      "manager": 5294,
      "affair": 5295,
      "prin": 5296,
      "subreddits": 5297,
      "achie": 5298,
      "marke": 5299,
      "relatable": 5300,
      "headline": 5301,
      "setting": 5302,
      "worthless": 5303,
      "cryp": 5304,
      "reminder": 5305,
      "instant": 5306,
      "clown": 5307,
      "assumed": 5308,
      "patient": 5309,
      "delusion": 5310,
      "empty": 5311,
      "annoyed": 5312,
      "critical": 5313,
      "appears": 5314,
      "feeding": 5315,
      "hatred": 5316,
      "described": 5317,
      "suffer": 5318,
      "blows": 5319,
      "central": 5320,
      "comparison": 5321,
      "harassment": 5322,
      "valuable": 5323,
      "labour": 5324,
      "itarian": 5325,
      "corrupt": 5326,
      "gentle": 5327,
      "absurd": 5328,
      "abandon": 5329,
      "ders": 5330,
      "ku": 5331,
      "lor": 5332,
      "td": 5333,
      "tast": 5334,
      "vy": 5335,
      "inspir": 5336,
      "toler": 5337,
      "stage": 5338,
      "asp": 5339,
      "sem": 5340,
      "section": 5341,
      "escape": 5342,
      "liking": 5343,
      "roast": 5344,
      "adic": 5345,
      "adays": 5346,
      "nowadays": 5347,
      "shine": 5348,
      "herent": 5349,
      "ideology": 5350,
      "discovered": 5351,
      "misogy": 5352,
      "angle": 5353,
      "desc": 5354,
      "bitter": 5355,
      "strangers": 5356,
      "shape": 5357,
      "vibe": 5358,
      "stern": 5359,
      "favorites": 5360,
      "symp": 5361,
      "checking": 5362,
      "burned": 5363,
      "resist": 5364,
      "clapped": 5365,
      "hyper": 5366,
      "controll": 5367,
      "oddly": 5368,
      "contradic": 5369,
      "covering": 5370,
      "yyyy": 5371,
      "fascist": 5372,
      "pipe": 5373,
      "feminism": 5374,
      "neighborhood": 5375,
      "comparing": 5376,
      "addiction": 5377,
      "industry": 5378,
      "pulled": 5379,
      "israel": 5380,
      "mediocre": 5381,
      "athing": 5382,
      "bible": 5383,
      "bump": 5384,
      "cate": 5385,
      "cers": 5386,
      "fyi": 5387,
      "lame": 5388,
      "swing": 5389,
      "smug": 5390,
      "input": 5391,
      "ato": 5392,
      "mets": 5393,
      "seats": 5394,
      "arrow": 5395,
      "sooo": 5396,
      "icks": 5397,
      "root": 5398,
      "aded": 5399,
      "hom": 5400,
      "unpopular": 5401,
      "mood": 5402,
      "dems": 5403,
      "imple": 5404,
      "anytime": 5405,
      "endor": 5406,
      "whoops": 5407,
      "woo": 5408,
      "scient": 5409,
      "stops": 5410,
      "pride": 5411,
      "overrated": 5412,
      "vomit": 5413,
      "wave": 5414,
      "mins": 5415,
      "blan": 5416,
      "broad": 5417,
      "ftfy": 5418,
      "drinks": 5419,
      "killers": 5420,
      "phil": 5421,
      "jeez": 5422,
      "sessed": 5423,
      "blown": 5424,
      "century": 5425,
      "complic": 5426,
      "millions": 5427,
      "controvers": 5428,
      "patri": 5429,
      "cringey": 5430,
      "sunday": 5431,
      "⠀⠀⠀⠀": 5432,
      "emotionally": 5433,
      "narr": 5434,
      "status": 5435,
      "statist": 5436,
      "strike": 5437,
      "customer": 5438,
      "kore": 5439,
      "transp": 5440,
      "citizen": 5441,
      "struggle": 5442,
      "homophobic": 5443,
      "mexico": 5444,
      "kitchen": 5445,
      "]!!": 5446,
      "cart": 5447,
      "gam": 5448,
      "lg": 5449,
      "rarely": 5450,
      "tone": 5451,
      "yan": 5452,
      "toy": 5453,
      "nove": 5454,
      "stro": 5455,
      "leaf": 5456,
      "notes": 5457,
      "doo": 5458,
      "liar": 5459,
      "hop": 5460,
      "gee": 5461,
      "outrage": 5462,
      "poe": 5463,
      "poison": 5464,
      "ilities": 5465,
      "bom": 5466,
      "illness": 5467,
      "taught": 5468,
      "fold": 5469,
      "print": 5470,
      "discrimin": 5471,
      "ruining": 5472,
      "intoler": 5473,
      "kindness": 5474,
      "handed": 5475,
      "chocol": 5476,
      "synd": 5477,
      "opened": 5478,
      "experiences": 5479,
      "corrected": 5480,
      "nailed": 5481,
      "actively": 5482,
      "attracted": 5483,
      "ticket": 5484,
      "shutdown": 5485,
      "approach": 5486,
      "aaaaa": 5487,
      "ethical": 5488,
      "belly": 5489,
      "guilt": 5490,
      "competition": 5491,
      "appearance": 5492,
      "schedu": 5493,
      "january": 5494,
      "holiday": 5495,
      "stretch": 5496,
      "chocolate": 5497,
      "38": 5498,
      "mascul": 5499,
      "thri": 5500,
      "inches": 5501,
      "influ": 5502,
      "thet": 5503,
      "stances": 5504,
      "ordered": 5505,
      "associ": 5506,
      "beg": 5507,
      "hack": 5508,
      "goo": 5509,
      "roster": 5510,
      "ripped": 5511,
      "unattractive": 5512,
      "unbelievable": 5513,
      "ionally": 5514,
      "tear": 5515,
      "tration": 5516,
      "congress": 5517,
      "console": 5518,
      "exha": 5519,
      "comput": 5520,
      "gues": 5521,
      "guid": 5522,
      "timent": 5523,
      "bots": 5524,
      "romantic": 5525,
      "whoa": 5526,
      "acked": 5527,
      "scumb": 5528,
      "grey": 5529,
      "stolen": 5530,
      "comeback": 5531,
      "ishing": 5532,
      "disease": 5533,
      "bulls": 5534,
      "crash": 5535,
      "objective": 5536,
      "maga": 5537,
      "owners": 5538,
      "toronto": 5539,
      "homeless": 5540,
      "defending": 5541,
      "skip": 5542,
      "blocked": 5543,
      "drives": 5544,
      "2017": 5545,
      "screwed": 5546,
      "sales": 5547,
      "leads": 5548,
      "safety": 5549,
      "accounts": 5550,
      "sentiment": 5551,
      "crown": 5552,
      "boots": 5553,
      "democrats": 5554,
      "slap": 5555,
      "squad": 5556,
      "designed": 5557,
      "heavily": 5558,
      "consistently": 5559,
      "sandwi": 5560,
      "quarter": 5561,
      "rooms": 5562,
      "horribly": 5563,
      "manipul": 5564,
      "optimist": 5565,
      "scumbag": 5566,
      "5th": 5567,
      "bust": 5568,
      "cuck": 5569,
      "gap": 5570,
      "ix": 5571,
      "ients": 5572,
      "lou": 5573,
      "pats": 5574,
      "rade": 5575,
      "sf": 5576,
      "sized": 5577,
      "tly": 5578,
      "tick": 5579,
      "zing": 5580,
      "“[": 5581,
      "atm": 5582,
      "veget": 5583,
      "forcing": 5584,
      "fornia": 5585,
      "amp": 5586,
      "wik": 5587,
      "wire": 5588,
      "cod": 5589,
      "foo": 5590,
      "grace": 5591,
      "minne": 5592,
      "blaming": 5593,
      "sites": 5594,
      "highlight": 5595,
      "confusion": 5596,
      "chain": 5597,
      "fiction": 5598,
      "spoiled": 5599,
      "correctly": 5600,
      "factor": 5601,
      "tickets": 5602,
      "rams": 5603,
      "succeed": 5604,
      "accepted": 5605,
      "engine": 5606,
      "miracle": 5607,
      "replies": 5608,
      "apartment": 5609,
      "vaccines": 5610,
      "radio": 5611,
      "criticism": 5612,
      "direction": 5613,
      "products": 5614,
      "reporting": 5615,
      "california": 5616,
      "reveal": 5617,
      "companies": 5618,
      "emergen": 5619,
      "awhile": 5620,
      "bod": 5621,
      "cb": 5622,
      "cs": 5623,
      "dread": 5624,
      "easter": 5625,
      "gaming": 5626,
      "ials": 5627,
      "ires": 5628,
      "sigh": 5629,
      "wra": 5630,
      "⣿⣿": 5631,
      "inev": 5632,
      "infuri": 5633,
      "reo": 5634,
      "nomin": 5635,
      "ases": 5636,
      "arse": 5637,
      "socially": 5638,
      "western": 5639,
      "adminis": 5640,
      "cot": 5641,
      "chin": 5642,
      "determin": 5643,
      "sometime": 5644,
      "shits": 5645,
      "plane": 5646,
      "agers": 5647,
      "raph": 5648,
      "bleed": 5649,
      "typic": 5650,
      "sav": 5651,
      "spon": 5652,
      "letter": 5653,
      "misread": 5654,
      "dip": 5655,
      "answered": 5656,
      "shown": 5657,
      "minds": 5658,
      "stereo": 5659,
      "turd": 5660,
      "amazed": 5661,
      "sexually": 5662,
      "owned": 5663,
      "handled": 5664,
      "syri": 5665,
      "destru": 5666,
      "delay": 5667,
      "growth": 5668,
      "rifice": 5669,
      "eyebrows": 5670,
      "sexuality": 5671,
      "disappointment": 5672,
      "rrrr": 5673,
      "teaching": 5674,
      "prevent": 5675,
      "jerseys": 5676,
      "london": 5677,
      "clarification": 5678,
      "bills": 5679,
      "knock": 5680,
      "minority": 5681,
      "particularly": 5682,
      "nurse": 5683,
      "utterly": 5684,
      "chiefs": 5685,
      "anarchist": 5686,
      "sacrifice": 5687,
      "sneak": 5688,
      "politicians": 5689,
      "shift": 5690,
      "genocide": 5691,
      "masturb": 5692,
      "crypto": 5693,
      "inevit": 5694,
      "typically": 5695,
      "34": 5696,
      "300": 5697,
      "7th": 5698,
      ">[": 5699,
      "bpd": 5700,
      "cil": 5701,
      "dent": 5702,
      "gon": 5703,
      "kin": 5704,
      "nie": 5705,
      "nhl": 5706,
      "owe": 5707,
      "rating": 5708,
      "inappropriate": 5709,
      "review": 5710,
      "stan": 5711,
      "alp": 5712,
      "ariz": 5713,
      "doz": 5714,
      "ambi": 5715,
      "tips": 5716,
      "abused": 5717,
      "poo": 5718,
      "poll": 5719,
      "upper": 5720,
      "shite": 5721,
      "consc": 5722,
      "raz": 5723,
      "harsh": 5724,
      "civi": 5725,
      "funding": 5726,
      "grind": 5727,
      "realizing": 5728,
      "restric": 5729,
      "lette": 5730,
      "firm": 5731,
      "subtle": 5732,
      "appla": 5733,
      "brag": 5734,
      "brow": 5735,
      "aken": 5736,
      "cared": 5737,
      "creative": 5738,
      "nyc": 5739,
      "dram": 5740,
      "amazingly": 5741,
      "curse": 5742,
      "charges": 5743,
      "stayed": 5744,
      "portion": 5745,
      "positions": 5746,
      "assumption": 5747,
      "hyster": 5748,
      "mistaken": 5749,
      "southern": 5750,
      "haircut": 5751,
      "ontario": 5752,
      "empire": 5753,
      "smells": 5754,
      "😂😂😂": 5755,
      "conversations": 5756,
      "nuclear": 5757,
      "regarding": 5758,
      "snowfla": 5759,
      "9999": 5760,
      "fascism": 5761,
      "dragon": 5762,
      "treatment": 5763,
      "crimes": 5764,
      "entertainment": 5765,
      "consistent": 5766,
      "wasting": 5767,
      "travel": 5768,
      "chief": 5769,
      "rejected": 5770,
      "leaning": 5771,
      "vacation": 5772,
      "candidate": 5773,
      "medicine": 5774,
      "underestimate": 5775,
      "arizona": 5776,
      "ckets": 5777,
      "eous": 5778,
      "hul": 5779,
      "ja": 5780,
      "jab": 5781,
      "junk": 5782,
      "sna": 5783,
      "vr": 5784,
      "vill": 5785,
      "yard": 5786,
      "era": 5787,
      "ery": 5788,
      "todd": 5789,
      "lil": 5790,
      "acho": 5791,
      "actors": 5792,
      "icor": 5793,
      "adding": 5794,
      "chine": 5795,
      "moms": 5796,
      "neat": 5797,
      "poke": 5798,
      "fection": 5799,
      "combat": 5800,
      "causing": 5801,
      "ilt": 5802,
      "righteous": 5803,
      "umm": 5804,
      "checks": 5805,
      "thankfully": 5806,
      "sorts": 5807,
      "disaster": 5808,
      "overwhel": 5809,
      "intended": 5810,
      "serving": 5811,
      "damned": 5812,
      "corner": 5813,
      "tries": 5814,
      "obsessed": 5815,
      "calories": 5816,
      "vibes": 5817,
      "burning": 5818,
      "painting": 5819,
      "anec": 5820,
      "!!!!!!": 5821,
      "naive": 5822,
      "purple": 5823,
      "scored": 5824,
      "rounds": 5825,
      "furry": 5826,
      "description": 5827,
      "leaves": 5828,
      "recovery": 5829,
      "pleasant": 5830,
      "envy": 5831,
      "affected": 5832,
      "subscribed": 5833,
      "significantly": 5834,
      "platform": 5835,
      "intentionally": 5836,
      "method": 5837,
      "stunning": 5838,
      "paranoid": 5839,
      "hawks": 5840,
      "storm": 5841,
      "november": 5842,
      "computer": 5843,
      "chinese": 5844,
      ",,": 5845,
      "29": 5846,
      "31": 5847,
      ">!": 5848,
      "duck": 5849,
      "fb": 5850,
      "gd": 5851,
      "hers": 5852,
      "ske": 5853,
      "sink": 5854,
      "uals": 5855,
      "ouch": 5856,
      "retail": 5857,
      "meds": 5858,
      "toast": 5859,
      "bee": 5860,
      "vey": 5861,
      "semi": 5862,
      "dows": 5863,
      "forum": 5864,
      "ami": 5865,
      "rog": 5866,
      "sus": 5867,
      "debt": 5868,
      "shu": 5869,
      "shall": 5870,
      "ateful": 5871,
      "plug": 5872,
      "exit": 5873,
      "elabor": 5874,
      "bothered": 5875,
      "redu": 5876,
      "typing": 5877,
      "shoulder": 5878,
      "assholes": 5879,
      "friendship": 5880,
      "species": 5881,
      "shitpost": 5882,
      "beliefs": 5883,
      "breathing": 5884,
      "sadness": 5885,
      "differen": 5886,
      "international": 5887,
      "ension": 5888,
      "?!?": 5889,
      "bike": 5890,
      "advance": 5891,
      "network": 5892,
      "burgers": 5893,
      "gged": 5894,
      "riding": 5895,
      "responses": 5896,
      "cringy": 5897,
      "throws": 5898,
      "balance": 5899,
      "placed": 5900,
      "democrat": 5901,
      "baseball": 5902,
      "dict": 5903,
      "behaviour": 5904,
      "teachers": 5905,
      "grammar": 5906,
      "embarrassment": 5907,
      "seattle": 5908,
      "analogy": 5909,
      "nsfw": 5910,
      "economy": 5911,
      "audience": 5912,
      "rooting": 5913,
      "chuckle": 5914,
      "obsession": 5915,
      "blatant": 5916,
      "boobs": 5917,
      "championship": 5918,
      "coincidence": 5919,
      "masculinity": 5920,
      "33": 5921,
      "eve": 5922,
      "gut": 5923,
      "hig": 5924,
      "uded": 5925,
      "wl": 5926,
      "rer": 5927,
      "isl": 5928,
      "stad": 5929,
      "lef": 5930,
      "asia": 5931,
      "haz": 5932,
      "nament": 5933,
      "gosh": 5934,
      "pect": 5935,
      "rim": 5936,
      "mains": 5937,
      "cell": 5938,
      "yeh": 5939,
      "shorts": 5940,
      "exchange": 5941,
      "proves": 5942,
      "prostit": 5943,
      "shed": 5944,
      "preference": 5945,
      "tailed": 5946,
      "woooo": 5947,
      "saur": 5948,
      "perce": 5949,
      "chem": 5950,
      "built": 5951,
      "serial": 5952,
      "apt": 5953,
      "lifestyle": 5954,
      "hardcore": 5955,
      "turtle": 5956,
      "windows": 5957,
      "shadow": 5958,
      "horny": 5959,
      "frid": 5960,
      "parag": 5961,
      "treats": 5962,
      "define": 5963,
      "signs": 5964,
      "burger": 5965,
      "statements": 5966,
      "diet": 5967,
      "accused": 5968,
      "explained": 5969,
      "communication": 5970,
      "popcorn": 5971,
      "shooter": 5972,
      "techno": 5973,
      "ternal": 5974,
      "desperately": 5975,
      "bastards": 5976,
      "required": 5977,
      "repeated": 5978,
      "collap": 5979,
      "terrified": 5980,
      "eeeeeeeeeeeeeeee": 5981,
      "dancing": 5982,
      "holidays": 5983,
      "wubwubwubwub": 5984,
      "investigation": 5985,
      "immigrants": 5986,
      "scoring": 5987,
      "independent": 5988,
      "cousin": 5989,
      "spanish": 5990,
      "marketing": 5991,
      "narrative": 5992,
      "syndrome": 5993,
      "dozens": 5994,
      "highest": 5995,
      "::": 5996,
      "cards": 5997,
      "gic": 5998,
      "kink": 5999,
      "mask": 6000,
      "praise": 6001,
      "tack": 6002,
      "vague": 6003,
      "thumb": 6004,
      "infer": 6005,
      "recall": 6006,
      "reverse": 6007,
      "refresh": 6008,
      "err": 6009,
      "ito": 6010,
      "itt": 6011,
      "aspect": 6012,
      "beats": 6013,
      "hehe": 6014,
      "ark": 6015,
      "sooooo": 6016,
      "whi": 6017,
      "lible": 6018,
      "exer": 6019,
      "boom": 6020,
      "happily": 6021,
      "greed": 6022,
      "chemis": 6023,
      "assist": 6024,
      "hahah": 6025,
      "lessly": 6026,
      "bros": 6027,
      "clever": 6028,
      "waited": 6029,
      "homes": 6030,
      "differently": 6031,
      "doggo": 6032,
      "sett": 6033,
      "mmm": 6034,
      "reminding": 6035,
      "instinct": 6036,
      "dropping": 6037,
      "fallen": 6038,
      "starter": 6039,
      "destro": 6040,
      "earn": 6041,
      "orders": 6042,
      "ridiculously": 6043,
      "protection": 6044,
      "admitted": 6045,
      "flesh": 6046,
      "ignored": 6047,
      "received": 6048,
      "offered": 6049,
      "nicer": 6050,
      "radical": 6051,
      "hammer": 6052,
      "pitch": 6053,
      "victims": 6054,
      "phew": 6055,
      "combined": 6056,
      "management": 6057,
      "japan": 6058,
      "streak": 6059,
      "vaxx": 6060,
      "claimed": 6061,
      "toddler": 6062,
      "chemistry": 6063,
      "!<": 6064,
      "400": 6065,
      "600": 6066,
      "85": 6067,
      "aust": 6068,
      "bart": 6069,
      "gul": 6070,
      "ggling": 6071,
      "ilies": 6072,
      "kat": 6073,
      "nick": 6074,
      "nug": 6075,
      "tam": 6076,
      "tent": 6077,
      "yr": 6078,
      "inser": 6079,
      "rec": 6080,
      "rev": 6081,
      "resid": 6082,
      "theft": 6083,
      "encour": 6084,
      "enforce": 6085,
      "height": 6086,
      "andro": 6087,
      "arti": 6088,
      "whis": 6089,
      "gov": 6090,
      "accus": 6091,
      "icking": 6092,
      "utah": 6093,
      "hots": 6094,
      "geon": 6095,
      "cock": 6096,
      "aller": 6097,
      "yell": 6098,
      "users": 6099,
      "compare": 6100,
      "pros": 6101,
      "sheep": 6102,
      "tape": 6103,
      "bles": 6104,
      "ohio": 6105,
      "spa": 6106,
      "spray": 6107,
      "grant": 6108,
      "grateful": 6109,
      "mono": 6110,
      "torture": 6111,
      "venez": 6112,
      "families": 6113,
      "pays": 6114,
      "complex": 6115,
      "catching": 6116,
      "wallet": 6117,
      "burst": 6118,
      "confusing": 6119,
      "cutest": 6120,
      "chap": 6121,
      "messing": 6122,
      "starving": 6123,
      "^^^": 6124,
      "constant": 6125,
      "bully": 6126,
      "grandpa": 6127,
      "regrets": 6128,
      "boner": 6129,
      "suggesting": 6130,
      "cookies": 6131,
      "psychopath": 6132,
      "atheist": 6133,
      "hiding": 6134,
      "weapons": 6135,
      "terrorists": 6136,
      "graphic": 6137,
      "measure": 6138,
      "primary": 6139,
      "provided": 6140,
      "diagnosed": 6141,
      "relief": 6142,
      "essentially": 6143,
      "circumstances": 6144,
      "december": 6145,
      "abandoned": 6146,
      "leafs": 6147,
      "optimistic": 6148,
      "minneso": 6149,
      "anecdo": 6150,
      "stadium": 6151,
      "venezuel": 6152,
      "bones": 6153,
      "cough": 6154,
      "gt": 6155,
      "hing": 6156,
      "ias": 6157,
      "jar": 6158,
      "pity": 6159,
      "pier": 6160,
      "sab": 6161,
      "xbox": 6162,
      "zoo": 6163,
      "thir": 6164,
      "infl": 6165,
      "theme": 6166,
      "theories": 6167,
      "stink": 6168,
      "alled": 6169,
      "encies": 6170,
      "amen": 6171,
      "los": 6172,
      "verty": 6173,
      "coo": 6174,
      "abs": 6175,
      "unicor": 6176,
      "chant": 6177,
      "poverty": 6178,
      "shill": 6179,
      "shred": 6180,
      "condesc": 6181,
      "urally": 6182,
      "prequ": 6183,
      "tains": 6184,
      "quot": 6185,
      "gamers": 6186,
      "intj": 6187,
      "integr": 6188,
      "azz": 6189,
      "logist": 6190,
      "dynam": 6191,
      "imagined": 6192,
      "welp": 6193,
      "cycling": 6194,
      "paste": 6195,
      "naturally": 6196,
      "temper": 6197,
      "attacking": 6198,
      "ughter": 6199,
      "airport": 6200,
      "googled": 6201,
      "adopt": 6202,
      "officer": 6203,
      "privile": 6204,
      "fishing": 6205,
      "feminist": 6206,
      "feminists": 6207,
      "developed": 6208,
      "grief": 6209,
      "pills": 6210,
      "various": 6211,
      "mildly": 6212,
      "intimid": 6213,
      "shady": 6214,
      "guaranteed": 6215,
      "controversial": 6216,
      "administration": 6217,
      "snake": 6218,
      "elaborate": 6219,
      "*\"": 6220,
      "fbi": 6221,
      "mg": 6222,
      "pts": 6223,
      "task": 6224,
      "tasty": 6225,
      "uate": 6226,
      "infin": 6227,
      "ouse": 6228,
      "resc": 6229,
      "atl": 6230,
      "toon": 6231,
      "toms": 6232,
      "noise": 6233,
      "sta": 6234,
      "arr": 6235,
      "goof": 6236,
      "rolled": 6237,
      "weigh": 6238,
      "hotel": 6239,
      "river": 6240,
      "unit": 6241,
      "unnecessary": 6242,
      "neo": 6243,
      "nego": 6244,
      "powers": 6245,
      "fees": 6246,
      "immoral": 6247,
      "comrade": 6248,
      "agu": 6249,
      "astro": 6250,
      "ousing": 6251,
      "scale": 6252,
      "umps": 6253,
      "evening": 6254,
      "launch": 6255,
      "misleading": 6256,
      "applied": 6257,
      "matically": 6258,
      "steam": 6259,
      "crew": 6260,
      "mary": 6261,
      "tural": 6262,
      "counts": 6263,
      "reasoning": 6264,
      "shared": 6265,
      "crappy": 6266,
      "iphone": 6267,
      "highlights": 6268,
      "viet": 6269,
      "loses": 6270,
      "choo": 6271,
      "hella": 6272,
      "mitism": 6273,
      "eaten": 6274,
      "pedoph": 6275,
      "spoken": 6276,
      "passive": 6277,
      "drown": 6278,
      "deny": 6279,
      "communist": 6280,
      "figures": 6281,
      "maintain": 6282,
      "victory": 6283,
      "judging": 6284,
      "failing": 6285,
      "included": 6286,
      "slavery": 6287,
      "switched": 6288,
      "browns": 6289,
      "bothers": 6290,
      "nails": 6291,
      "hypocris": 6292,
      "combination": 6293,
      "authoritarian": 6294,
      "eggs": 6295,
      "tournament": 6296,
      "wasted": 6297,
      "motivated": 6298,
      "horrific": 6299,
      "thousands": 6300,
      "citizens": 6301,
      "scares": 6302,
      "tweets": 6303,
      "department": 6304,
      "achieve": 6305,
      "symptoms": 6306,
      "emergency": 6307,
      "minnesota": 6308,
      "condescending": 6309,
      "hypocrisy": 6310,
      "bout": 6311,
      "dup": 6312,
      "fright": 6313,
      "jaw": 6314,
      "lly": 6315,
      "miles": 6316,
      "rb": 6317,
      "wha": 6318,
      "invisible": 6319,
      "remark": 6320,
      "atro": 6321,
      "enthus": 6322,
      "asks": 6323,
      "hem": 6324,
      "ammo": 6325,
      "wipe": 6326,
      "gear": 6327,
      "geez": 6328,
      "unlikely": 6329,
      "outfit": 6330,
      "detailed": 6331,
      "someday": 6332,
      "mah": 6333,
      "traged": 6334,
      "immature": 6335,
      "conce": 6336,
      "plz": 6337,
      "ideal": 6338,
      "sci": 6339,
      "item": 6340,
      "lakers": 6341,
      "afric": 6342,
      "realised": 6343,
      "dia": 6344,
      "hired": 6345,
      "blings": 6346,
      "damnit": 6347,
      "partic": 6348,
      "ps4": 6349,
      "minded": 6350,
      "belief": 6351,
      "jets": 6352,
      "ential": 6353,
      "questionable": 6354,
      "doub": 6355,
      "juice": 6356,
      "juicy": 6357,
      "clothing": 6358,
      "scenes": 6359,
      "hahahah": 6360,
      "controlled": 6361,
      "2000": 6362,
      "equival": 6363,
      "examples": 6364,
      "implic": 6365,
      "delivery": 6366,
      "jumping": 6367,
      "packers": 6368,
      "screams": 6369,
      "90s": 6370,
      "officially": 6371,
      "axe": 6372,
      "trading": 6373,
      "vaccinated": 6374,
      "sticks": 6375,
      "convince": 6376,
      "assaul": 6377,
      "audio": 6378,
      "reaching": 6379,
      "qualified": 6380,
      "strategy": 6381,
      "retirement": 6382,
      "economic": 6383,
      "scotland": 6384,
      "conclusion": 6385,
      "efficient": 6386,
      "relatively": 6387,
      "attempts": 6388,
      "yanke": 6389,
      "guessed": 6390,
      "paragraph": 6391,
      "43": 6392,
      "bars": 6393,
      "flight": 6394,
      "gard": 6395,
      "han": 6396,
      "lb": 6397,
      "phas": 6398,
      "ron": 6399,
      "rank": 6400,
      "sam": 6401,
      "vile": 6402,
      "toward": 6403,
      "stunt": 6404,
      "lee": 6405,
      "dose": 6406,
      "wiz": 6407,
      "wives": 6408,
      "hoo": 6409,
      "rial": 6410,
      "unironically": 6411,
      "motor": 6412,
      "posing": 6413,
      "cann": 6414,
      "indian": 6415,
      "boston": 6416,
      "raw": 6417,
      "romance": 6418,
      "artists": 6419,
      "wore": 6420,
      "events": 6421,
      "cheer": 6422,
      "backwards": 6423,
      "intri": 6424,
      "division": 6425,
      "tension": 6426,
      "weirdly": 6427,
      "shaming": 6428,
      "understandable": 6429,
      "paral": 6430,
      "autistic": 6431,
      "defender": 6432,
      "colts": 6433,
      "custom": 6434,
      "barrel": 6435,
      "skins": 6436,
      "missions": 6437,
      "walmart": 6438,
      "advent": 6439,
      "racists": 6440,
      "mommy": 6441,
      "fights": 6442,
      "expand": 6443,
      "clock": 6444,
      "couples": 6445,
      "nause": 6446,
      "scott": 6447,
      "tempor": 6448,
      "walls": 6449,
      "bonus": 6450,
      "previously": 6451,
      "moderate": 6452,
      "streets": 6453,
      "automatically": 6454,
      "uuuuuuuu": 6455,
      "subscribe": 6456,
      "celebrity": 6457,
      "frozen": 6458,
      "improvement": 6459,
      "knees": 6460,
      "terribly": 6461,
      "flashbacks": 6462,
      "spreading": 6463,
      "lifting": 6464,
      "identify": 6465,
      "tlj": 6466,
      "sweaty": 6467,
      "execution": 6468,
      "hundreds": 6469,
      "regularly": 6470,
      "funnier": 6471,
      "translation": 6472,
      "patriots": 6473,
      "discrimination": 6474,
      "schedule": 6475,
      "influence": 6476,
      "alpha": 6477,
      "!*": 6478,
      "49": 6479,
      ":'": 6480,
      "])": 6481,
      "]*": 6482,
      "]”": 6483,
      "bite": 6484,
      "ddle": 6485,
      "fra": 6486,
      "mint": 6487,
      "swed": 6488,
      "tid": 6489,
      "tact": 6490,
      "twent": 6491,
      "armor": 6492,
      "sore": 6493,
      "gop": 6494,
      "coke": 6495,
      "coward": 6496,
      "unhappy": 6497,
      "unusual": 6498,
      "pods": 6499,
      "iff": 6500,
      "mafi": 6501,
      "mavs": 6502,
      "antis": 6503,
      "convic": 6504,
      "exam": 6505,
      "exposed": 6506,
      "bol": 6507,
      "blew": 6508,
      "ahhhh": 6509,
      "sau": 6510,
      "misunderstanding": 6511,
      "spelled": 6512,
      "omb": 6513,
      "award": 6514,
      "creatures": 6515,
      "shake": 6516,
      "trophy": 6517,
      "cartoon": 6518,
      "interpret": 6519,
      "morons": 6520,
      "morbid": 6521,
      "embr": 6522,
      "cudd": 6523,
      "lists": 6524,
      "listed": 6525,
      "defended": 6526,
      "malic": 6527,
      "colour": 6528,
      "sentences": 6529,
      "wallow": 6530,
      "witness": 6531,
      "houston": 6532,
      "foods": 6533,
      "captain": 6534,
      "instit": 6535,
      "hyped": 6536,
      "filthy": 6537,
      "patience": 6538,
      "ankle": 6539,
      "italian": 6540,
      "answering": 6541,
      "150": 6542,
      "hunt": 6543,
      "bullying": 6544,
      "supports": 6545,
      "flir": 6546,
      "humble": 6547,
      "prayers": 6548,
      "grave": 6549,
      "feedback": 6550,
      "drafted": 6551,
      "burns": 6552,
      "meaningful": 6553,
      "fella": 6554,
      "involve": 6555,
      "blowing": 6556,
      "chips": 6557,
      "connection": 6558,
      "tribute": 6559,
      "benefits": 6560,
      "secretly": 6561,
      "possess": 6562,
      "boundaries": 6563,
      "intellect": 6564,
      "devast": 6565,
      "broncos": 6566,
      "dumbest": 6567,
      "defeat": 6568,
      "addition": 6569,
      "pounds": 6570,
      "register": 6571,
      "oblivion": 6572,
      "structure": 6573,
      "blanket": 6574,
      "transpho": 6575,
      "eastern": 6576,
      "dictator": 6577,
      "austin": 6578,
      "venezuela": 6579,
      "negoti": 6580,
      "particip": 6581,
      "intrigu": 6582,
      "twenty": 6583,
      "mafia": 6584,
      "\"...": 6585,
      "aid": 6586,
      "bam": 6587,
      "cure": 6588,
      "dur": 6589,
      "dil": 6590,
      "ique": 6591,
      "jun": 6592,
      "pse": 6593,
      "pist": 6594,
      "phor": 6595,
      "sj": 6596,
      "sust": 6597,
      "sket": 6598,
      "vit": 6599,
      "zo": 6600,
      "⠛⠛": 6601,
      "refu": 6602,
      "reacting": 6603,
      "ancy": 6604,
      "theless": 6605,
      "attor": 6606,
      "iter": 6607,
      "sting": 6608,
      "escal": 6609,
      "doors": 6610,
      "lim": 6611,
      "liver": 6612,
      "aret": 6613,
      "areas": 6614,
      "forth": 6615,
      "peak": 6616,
      "rival": 6617,
      "ung": 6618,
      "unable": 6619,
      "outcome": 6620,
      "myth": 6621,
      "deer": 6622,
      "deeper": 6623,
      "ifies": 6624,
      "ulsive": 6625,
      "agon": 6626,
      "prospect": 6627,
      "seeking": 6628,
      "shel": 6629,
      "quad": 6630,
      "perpe": 6631,
      "laz": 6632,
      "joined": 6633,
      "gameplay": 6634,
      "intp": 6635,
      "icked": 6636,
      "submit": 6637,
      "afterwards": 6638,
      "clut": 6639,
      "monday": 6640,
      "creating": 6641,
      "mari": 6642,
      "bitcoin": 6643,
      "believed": 6644,
      "sincerely": 6645,
      "interaction": 6646,
      "childish": 6647,
      "cured": 6648,
      "bipolar": 6649,
      "burden": 6650,
      "ysis": 6651,
      "titles": 6652,
      "closure": 6653,
      "socialists": 6654,
      "emoji": 6655,
      "depending": 6656,
      "collection": 6657,
      "panel": 6658,
      "skinny": 6659,
      "engaged": 6660,
      "exception": 6661,
      "invite": 6662,
      "weaker": 6663,
      "brush": 6664,
      "dodged": 6665,
      "tagged": 6666,
      "neighbors": 6667,
      "initi": 6668,
      "metaphor": 6669,
      "😤😤😤😤": 6670,
      "disrespectful": 6671,
      "immigration": 6672,
      "millenni": 6673,
      "republicans": 6674,
      "compliment": 6675,
      "intelligent": 6676,
      "electric": 6677,
      "competent": 6678,
      "records": 6679,
      "bodies": 6680,
      "!)": 6681,
      "bin": 6682,
      "eag": 6683,
      "gil": 6684,
      "lur": 6685,
      "labor": 6686,
      "mt": 6687,
      "phar": 6688,
      "pap": 6689,
      "rates": 6690,
      "tb": 6691,
      "uhhhh": 6692,
      "yah": 6693,
      "reached": 6694,
      "isis": 6695,
      "mechan": 6696,
      "ashes": 6697,
      "vegas": 6698,
      "soever": 6699,
      "loso": 6700,
      "robot": 6701,
      "chu": 6702,
      "chip": 6703,
      "supre": 6704,
      "deliber": 6705,
      "opens": 6706,
      "opath": 6707,
      "whatsoever": 6708,
      "ceiling": 6709,
      "anta": 6710,
      "usage": 6711,
      "oked": 6712,
      "prose": 6713,
      "elite": 6714,
      "precise": 6715,
      "mentality": 6716,
      "histor": 6717,
      "forest": 6718,
      "scars": 6719,
      "ohhhhh": 6720,
      "label": 6721,
      "spring": 6722,
      "chef": 6723,
      "beings": 6724,
      "dammit": 6725,
      "mini": 6726,
      "lottery": 6727,
      "hateful": 6728,
      "northern": 6729,
      "enjoyable": 6730,
      "mercy": 6731,
      "remembering": 6732,
      "nerd": 6733,
      "fancy": 6734,
      "trucks": 6735,
      "openly": 6736,
      "houses": 6737,
      "responded": 6738,
      "salary": 6739,
      "bingo": 6740,
      "😂😂😂😂": 6741,
      "flop": 6742,
      "touched": 6743,
      "----": 6744,
      "studies": 6745,
      "commitment": 6746,
      "finishing": 6747,
      "dodge": 6748,
      "seafood": 6749,
      "criticize": 6750,
      "recognized": 6751,
      "streaming": 6752,
      "weirdo": 6753,
      "alien": 6754,
      "comprehend": 6755,
      "development": 6756,
      "frequently": 6757,
      "vehicle": 6758,
      "implement": 6759,
      "korea": 6760,
      "lgbt": 6761,
      "infuriating": 6762,
      "dramatic": 6763,
      "friday": 6764,
      "privilege": 6765,
      "choosing": 6766,
      "tragedy": 6767,
      "africa": 6768,
      "%.": 6769,
      "aha": 6770,
      "aus": 6771,
      "bia": 6772,
      "dust": 6773,
      "eats": 6774,
      "file": 6775,
      "hs": 6776,
      "hil": 6777,
      "lp": 6778,
      "lences": 6779,
      "mand": 6780,
      "mall": 6781,
      "ole": 6782,
      "pg": 6783,
      "uous": 6784,
      "zed": 6785,
      "rede": 6786,
      "alo": 6787,
      "orient": 6788,
      "leans": 6789,
      "beans": 6790,
      "belt": 6791,
      "seed": 6792,
      "ander": 6793,
      "amed": 6794,
      "armed": 6795,
      "dope": 6796,
      "ares": 6797,
      "kest": 6798,
      "goose": 6799,
      "roles": 6800,
      "adjust": 6801,
      "utr": 6802,
      "coal": 6803,
      "neutr": 6804,
      "dete": 6805,
      "fee": 6806,
      "territ": 6807,
      "capt": 6808,
      "timeline": 6809,
      "safer": 6810,
      "voters": 6811,
      "servers": 6812,
      "coup": 6813,
      "blon": 6814,
      "desire": 6815,
      "monkey": 6816,
      "mindset": 6817,
      "breathe": 6818,
      "basis": 6819,
      "worlds": 6820,
      "german": 6821,
      "warri": 6822,
      "racial": 6823,
      "religions": 6824,
      "commute": 6825,
      "!!!!!!!!": 6826,
      "caption": 6827,
      "sale": 6828,
      "latest": 6829,
      "volun": 6830,
      "wings": 6831,
      "penalty": 6832,
      "ordinary": 6833,
      "policies": 6834,
      "fantas": 6835,
      "senate": 6836,
      "amounts": 6837,
      "mouse": 6838,
      "ballo": 6839,
      "flav": 6840,
      "touching": 6841,
      "threats": 6842,
      "deeply": 6843,
      "includes": 6844,
      "meaningless": 6845,
      "committed": 6846,
      "flee": 6847,
      "teenager": 6848,
      "largely": 6849,
      "wisdom": 6850,
      "repeat": 6851,
      "____": 6852,
      "continues": 6853,
      "flowers": 6854,
      "expression": 6855,
      "surprisingly": 6856,
      "nesses": 6857,
      "survived": 6858,
      "cancel": 6859,
      "global": 6860,
      "route": 6861,
      "routine": 6862,
      "projecting": 6863,
      "trailer": 6864,
      "percentage": 6865,
      "receiving": 6866,
      "condolences": 6867,
      "sensible": 6868,
      "amendment": 6869,
      "cigaret": 6870,
      "pronoun": 6871,
      "taco": 6872,
      "homie": 6873,
      "hulu": 6874,
      "refreshing": 6875,
      "equivalent": 6876,
      "attorney": 6877,
      "millennials": 6878,
      "69": 6879,
      "]'": 6880,
      "buck": 6881,
      "cis": 6882,
      "cine": 6883,
      "fif": 6884,
      "hats": 6885,
      "iac": 6886,
      "iers": 6887,
      "jel": 6888,
      "mous": 6889,
      "macy": 6890,
      "passes": 6891,
      "sions": 6892,
      "wre": 6893,
      "zomb": 6894,
      "”,": 6895,
      "inherent": 6896,
      "resent": 6897,
      "atleast": 6898,
      "mel": 6899,
      "alleg": 6900,
      "asexual": 6901,
      "dox": 6902,
      "lib": 6903,
      "accep": 6904,
      "ading": 6905,
      "coord": 6906,
      "unlike": 6907,
      "ira": 6908,
      "degre": 6909,
      "imperi": 6910,
      "condu": 6911,
      "concentr": 6912,
      "agend": 6913,
      "itement": 6914,
      "greasy": 6915,
      "backup": 6916,
      "downhill": 6917,
      "realization": 6918,
      "subur": 6919,
      "mism": 6920,
      "menu": 6921,
      "speaks": 6922,
      "underwear": 6923,
      "applic": 6924,
      "shovel": 6925,
      "partners": 6926,
      "ffy": 6927,
      "queens": 6928,
      "marvel": 6929,
      "relatives": 6930,
      "horrend": 6931,
      "interrup": 6932,
      "morty": 6933,
      "chosen": 6934,
      "vikings": 6935,
      "cubs": 6936,
      "colors": 6937,
      "athlet": 6938,
      "ski": 6939,
      "excuses": 6940,
      "juana": 6941,
      "heartbreaking": 6942,
      "incident": 6943,
      "worded": 6944,
      "lands": 6945,
      "spots": 6946,
      "capit": 6947,
      "forgotten": 6948,
      "souls": 6949,
      "clicked": 6950,
      "shark": 6951,
      "nike": 6952,
      "trashy": 6953,
      "bumper": 6954,
      "discussing": 6955,
      "censor": 6956,
      "profession": 6957,
      "kitten": 6958,
      "counsel": 6959,
      "tradition": 6960,
      "teenagers": 6961,
      "clarifying": 6962,
      "micro": 6963,
      "cowboys": 6964,
      "suggestions": 6965,
      "projection": 6966,
      "survival": 6967,
      "references": 6968,
      "accomplish": 6969,
      "rabbit": 6970,
      "focused": 6971,
      "scratch": 6972,
      "opponent": 6973,
      "evolution": 6974,
      "elder": 6975,
      "complicated": 6976,
      "inevitable": 6977,
      "chemical": 6978,
      "inferior": 6979,
      "marijuana": 6980,
      "degrees": 6981,
      "agenda": 6982,
      "/¯": 6983,
      "250": 6984,
      ";-": 6985,
      "dwell": 6986,
      "dumber": 6987,
      "dmc": 6988,
      "lust": 6989,
      "lsea": 6990,
      "md": 6991,
      "mort": 6992,
      "np": 6993,
      "naked": 6994,
      "oce": 6995,
      "pas": 6996,
      "pra": 6997,
      "rhe": 6998,
      "rhy": 6999,
      "twins": 7000,
      "yt": 7001,
      "respec": 7002,
      "remains": 7003,
      "medit": 7004,
      "onon": 7005,
      "alab": 7006,
      "asian": 7007,
      "vet": 7008,
      "arrog": 7009,
      "libr": 7010,
      "lips": 7011,
      "acid": 7012,
      "rolls": 7013,
      "utional": 7014,
      "coworkers": 7015,
      "peach": 7016,
      "pepper": 7017,
      "ril": 7018,
      "unts": 7019,
      "suf": 7020,
      "sued": 7021,
      "poses": 7022,
      "pocket": 7023,
      "celt": 7024,
      "convert": 7025,
      "conference": 7026,
      "prov": 7027,
      "typo": 7028,
      "pleased": 7029,
      "chelsea": 7030,
      "assists": 7031,
      "misunderstood": 7032,
      "appoint": 7033,
      "underage": 7034,
      "classes": 7035,
      "mative": 7036,
      "sounded": 7037,
      "survey": 7038,
      "hormon": 7039,
      "heading": 7040,
      "interven": 7041,
      "frag": 7042,
      "charity": 7043,
      "biased": 7044,
      "warrant": 7045,
      "tues": 7046,
      "2012": 7047,
      "allowing": 7048,
      "traum": 7049,
      "importance": 7050,
      "natty": 7051,
      "facial": 7052,
      "publicly": 7053,
      "claiming": 7054,
      "flood": 7055,
      "bullied": 7056,
      "annoy": 7057,
      "shipping": 7058,
      "supporter": 7059,
      "bummer": 7060,
      "employed": 7061,
      "recommendation": 7062,
      "80s": 7063,
      "located": 7064,
      "banging": 7065,
      "announce": 7066,
      "sequel": 7067,
      "promote": 7068,
      "digging": 7069,
      "impression": 7070,
      "sociopath": 7071,
      "cancelled": 7072,
      "occasionally": 7073,
      "dlc": 7074,
      "philoso": 7075,
      "advocating": 7076,
      "pillows": 7077,
      "0000000000000000": 7078,
      "tumbl": 7079,
      "suspicious": 7080,
      "expert": 7081,
      "employment": 7082,
      "controller": 7083,
      "razor": 7084,
      "civiliz": 7085,
      "overwhelming": 7086,
      "technology": 7087,
      "greedy": 7088,
      "malicious": 7089,
      "gillette": 7090,
      "pharma": 7091,
      "alabama": 7092,
      "2k": 7093,
      "48": 7094,
      "4k": 7095,
      "bch": 7096,
      "blog": 7097,
      "elo": 7098,
      "knic": 7099,
      "nb": 7100,
      "nag": 7101,
      "nial": 7102,
      "pir": 7103,
      "pages": 7104,
      "rural": 7105,
      "smar": 7106,
      "tab": 7107,
      "vation": 7108,
      "ware": 7109,
      "inch": 7110,
      "anni": 7111,
      "thed": 7112,
      "sted": 7113,
      "aswell": 7114,
      "severe": 7115,
      "losses": 7116,
      "doom": 7117,
      "lift": 7118,
      "forting": 7119,
      "costu": 7120,
      "cogn": 7121,
      "unethical": 7122,
      "mock": 7123,
      "opposed": 7124,
      "shy": 7125,
      "shor": 7126,
      "worship": 7127,
      "...”": 7128,
      "ushes": 7129,
      "comforting": 7130,
      "cave": 7131,
      "agency": 7132,
      "peoples": 7133,
      "props": 7134,
      "gum": 7135,
      "raping": 7136,
      "ndum": 7137,
      "causes": 7138,
      "offers": 7139,
      "fucker": 7140,
      "disco": 7141,
      "distric": 7142,
      "overwatch": 7143,
      "greater": 7144,
      "fries": 7145,
      "subjective": 7146,
      "mise": 7147,
      "divid": 7148,
      "blur": 7149,
      "crab": 7150,
      ".......": 7151,
      "cleared": 7152,
      "legion": 7153,
      "legends": 7154,
      "legisl": 7155,
      "obje": 7156,
      "teammates": 7157,
      "handling": 7158,
      "supply": 7159,
      "imagining": 7160,
      "superbowl": 7161,
      "superior": 7162,
      "stays": 7163,
      "bigo": 7164,
      "aneously": 7165,
      "draf": 7166,
      "lando": 7167,
      "buddies": 7168,
      "strongly": 7169,
      "earned": 7170,
      "slept": 7171,
      "wingers": 7172,
      "darn": 7173,
      "distant": 7174,
      "translate": 7175,
      "referendum": 7176,
      "coverage": 7177,
      "crop": 7178,
      "insanely": 7179,
      "production": 7180,
      "nonetheless": 7181,
      "committing": 7182,
      "square": 7183,
      "potato": 7184,
      "replied": 7185,
      "vaccin": 7186,
      "thorough": 7187,
      "laying": 7188,
      "locker": 7189,
      "flags": 7190,
      "rumor": 7191,
      "thole": 7192,
      "values": 7193,
      "mutual": 7194,
      "effectively": 7195,
      "strawman": 7196,
      "^^^^^": 7197,
      "electr": 7198,
      "permanent": 7199,
      "correction": 7200,
      "stabbed": 7201,
      "conscious": 7202,
      "pistons": 7203,
      "sustain": 7204,
      "knicks": 7205,
      "4chan": 7206,
      "?”": 7207,
      "]!!!": 7208,
      "aoc": 7209,
      "dive": 7210,
      "gb": 7211,
      "hm": 7212,
      "ige": 7213,
      "nas": 7214,
      "nast": 7215,
      "pant": 7216,
      "paw": 7217,
      "punk": 7218,
      "rag": 7219,
      "rack": 7220,
      "sack": 7221,
      "sword": 7222,
      "swallow": 7223,
      "wan": 7224,
      "xist": 7225,
      "thi": 7226,
      "thru": 7227,
      "incapable": 7228,
      "remake": 7229,
      "reposted": 7230,
      "retired": 7231,
      "anity": 7232,
      "theater": 7233,
      "ativity": 7234,
      "lego": 7235,
      "beta": 7236,
      "hable": 7237,
      "arc": 7238,
      "socks": 7239,
      "aces": 7240,
      "roof": 7241,
      "ada": 7242,
      "peep": 7243,
      "unfair": 7244,
      "feature": 7245,
      "maker": 7246,
      "odds": 7247,
      "immun": 7248,
      "comics": 7249,
      "proving": 7250,
      "wooo": 7251,
      "mud": 7252,
      "literal": 7253,
      "overly": 7254,
      "grass": 7255,
      "izations": 7256,
      "lifetime": 7257,
      "shove": 7258,
      "shopping": 7259,
      "monkeys": 7260,
      "brook": 7261,
      "crust": 7262,
      "cracy": 7263,
      "gladly": 7264,
      "........": 7265,
      "insist": 7266,
      "2010": 7267,
      "tripping": 7268,
      "bites": 7269,
      "observ": 7270,
      "object": 7271,
      "smack": 7272,
      "iped": 7273,
      "redditors": 7274,
      "medication": 7275,
      "highschool": 7276,
      "enjoys": 7277,
      "mortal": 7278,
      "treas": 7279,
      "fuel": 7280,
      "colon": 7281,
      "oooooo": 7282,
      "valley": 7283,
      "excitement": 7284,
      "warming": 7285,
      "paint": 7286,
      "hearts": 7287,
      "ibal": 7288,
      "breaker": 7289,
      "breakfast": 7290,
      "iowa": 7291,
      "generic": 7292,
      "films": 7293,
      "musical": 7294,
      "attraction": 7295,
      "facing": 7296,
      "castle": 7297,
      "rifle": 7298,
      "systems": 7299,
      "balanced": 7300,
      "produce": 7301,
      "booze": 7302,
      "psychi": 7303,
      "basement": 7304,
      "describing": 7305,
      "grocer": 7306,
      "consin": 7307,
      "debating": 7308,
      "throat": 7309,
      "capitalist": 7310,
      "woods": 7311,
      "director": 7312,
      "promotion": 7313,
      "spamming": 7314,
      "transport": 7315,
      "sweetie": 7316,
      "rainbow": 7317,
      "polite": 7318,
      "polish": 7319,
      "additional": 7320,
      "intelligence": 7321,
      "cultural": 7322,
      "kudos": 7323,
      "sandwich": 7324,
      "syria": 7325,
      "destroying": 7326,
      "phase": 7327,
      "eagles": 7328,
      "horrendous": 7329,
      "tumblr": 7330,
      "bigotry": 7331,
      "psychiat": 7332,
      "*,": 7333,
      "28": 7334,
      "66": 7335,
      "este": 7336,
      "eacho": 7337,
      "gta": 7338,
      "glow": 7339,
      "kicking": 7340,
      "mich": 7341,
      "mier": 7342,
      "mvp": 7343,
      "nine": 7344,
      "pies": 7345,
      "panti": 7346,
      "rice": 7347,
      "sane": 7348,
      "tbf": 7349,
      "vas": 7350,
      "yrs": 7351,
      "️‍": 7352,
      "ths": 7353,
      "rewatch": 7354,
      "resign": 7355,
      "reviews": 7356,
      "resolution": 7357,
      "toss": 7358,
      "noooo": 7359,
      "enlight": 7360,
      "lemon": 7361,
      "habits": 7362,
      "arbit": 7363,
      "arian": 7364,
      "edly": 7365,
      "lod": 7366,
      "espn": 7367,
      "liament": 7368,
      "forbid": 7369,
      "goats": 7370,
      "peg": 7371,
      "tires": 7372,
      "tiest": 7373,
      "unrelated": 7374,
      "pockets": 7375,
      "deter": 7376,
      "mainst": 7377,
      "trag": 7378,
      "upside": 7379,
      "immen": 7380,
      "shin": 7381,
      "conver": 7382,
      "confront": 7383,
      "prob": 7384,
      "guitar": 7385,
      "boiled": 7386,
      "eval": 7387,
      "igan": 7388,
      "scand": 7389,
      "ohh": 7390,
      "cient": 7391,
      "meanwhile": 7392,
      "bugs": 7393,
      "rug": 7394,
      "waking": 7395,
      "clone": 7396,
      "pointed": 7397,
      "20s": 7398,
      "oblig": 7399,
      "stric": 7400,
      "horrid": 7401,
      "headed": 7402,
      "parliament": 7403,
      "101": 7404,
      "lineup": 7405,
      "eee": 7406,
      "simult": 7407,
      "ooooo": 7408,
      "braz": 7409,
      "bravo": 7410,
      "closely": 7411,
      "expense": 7412,
      "roommate": 7413,
      "install": 7414,
      "popul": 7415,
      "existing": 7416,
      "scores": 7417,
      "donuts": 7418,
      "factors": 7419,
      "writers": 7420,
      "binged": 7421,
      "transfer": 7422,
      "protected": 7423,
      "haters": 7424,
      "aaaaaaaa": 7425,
      "agrees": 7426,
      "consideration": 7427,
      "admitting": 7428,
      "slide": 7429,
      "struggling": 7430,
      "adore": 7431,
      "crossing": 7432,
      "quoting": 7433,
      "receive": 7434,
      "requires": 7435,
      "clarify": 7436,
      "vanilla": 7437,
      "wisconsin": 7438,
      "iii": 7439,
      "fourth": 7440,
      "analysis": 7441,
      "opportunities": 7442,
      "sticking": 7443,
      "rumors": 7444,
      "alternatives": 7445,
      "nurses": 7446,
      "🤣🤣🤣🤣": 7447,
      "employee": 7448,
      "device": 7449,
      "graphics": 7450,
      "programs": 7451,
      "intentional": 7452,
      "scheme": 7453,
      "australian": 7454,
      "spicy": 7455,
      "predictable": 7456,
      "sloppy": 7457,
      "journalist": 7458,
      "condoms": 7459,
      "relieved": 7460,
      "paranoia": 7461,
      "sympathy": 7462,
      "essential": 7463,
      "flames": 7464,
      "muscles": 7465,
      "arrived": 7466,
      "mystery": 7467,
      "inspiration": 7468,
      "manipulative": 7469,
      "snowflake": 7470,
      "villain": 7471,
      "insert": 7472,
      "encouraging": 7473,
      "pedophile": 7474,
      "atrocious": 7475,
      "yankees": 7476,
      "deliberately": 7477,
      "blonde": 7478,
      "eachother": 7479,
      "michigan": 7480,
      "mainstream": 7481,
      "tragic": 7482,
      "immense": 7483,
      "##": 7484,
      ")?": 7485,
      "37": 7486,
      "75": 7487,
      "dna": 7488,
      "ec": 7489,
      "ets": 7490,
      "faction": 7491,
      "gur": 7492,
      "gage": 7493,
      "hint": 7494,
      "housing": 7495,
      "joh": 7496,
      "kn": 7497,
      "lum": 7498,
      "mk": 7499,
      "nis": 7500,
      "puck": 7501,
      "pine": 7502,
      "pile": 7503,
      "sample": 7504,
      "uro": 7505,
      "virt": 7506,
      "yum": 7507,
      "❤❤": 7508,
      "thie": 7509,
      "novel": 7510,
      "ala": 7511,
      "orlando": 7512,
      "enal": 7513,
      "entered": 7514,
      "asper": 7515,
      "vegg": 7516,
      "sep": 7517,
      "seal": 7518,
      "sect": 7519,
      "hay": 7520,
      "som": 7521,
      "lia": 7522,
      "lical": 7523,
      "forms": 7524,
      "keeper": 7525,
      "ica": 7526,
      "hobby": 7527,
      "gem": 7528,
      "tipped": 7529,
      "aby": 7530,
      "pops": 7531,
      "irk": 7532,
      "devs": 7533,
      "canon": 7534,
      "cannon": 7535,
      "upload": 7536,
      "contain": 7537,
      "...\"": 7538,
      "excess": 7539,
      "commen": 7540,
      "caps": 7541,
      "guide": 7542,
      "indul": 7543,
      "ila": 7544,
      "ils": 7545,
      "prepare": 7546,
      "tools": 7547,
      "hash": 7548,
      "ohhh": 7549,
      "labe": 7550,
      "priced": 7551,
      "gamer": 7552,
      "ables": 7553,
      "disson": 7554,
      "disgrace": 7555,
      "assass": 7556,
      "hahahahaha": 7557,
      "mson": 7558,
      "misses": 7559,
      "duh": 7560,
      "kidn": 7561,
      "hibit": 7562,
      "blade": 7563,
      "clin": 7564,
      "mond": 7565,
      "kindly": 7566,
      "suring": 7567,
      ":).": 7568,
      "trilogy": 7569,
      "singer": 7570,
      "singing": 7571,
      "turno": 7572,
      "smal": 7573,
      "redditor": 7574,
      "morality": 7575,
      "gia": 7576,
      "giants": 7577,
      "jeans": 7578,
      "veness": 7579,
      "arsenal": 7580,
      "nerf": 7581,
      "juul": 7582,
      "addressed": 7583,
      "witch": 7584,
      "arguably": 7585,
      "messy": 7586,
      "expans": 7587,
      "drops": 7588,
      "midwest": 7589,
      "supported": 7590,
      "denying": 7591,
      "clubs": 7592,
      "salad": 7593,
      "speculation": 7594,
      "scope": 7595,
      "disgusted": 7596,
      "elections": 7597,
      "faced": 7598,
      "collect": 7599,
      "sunny": 7600,
      "complaint": 7601,
      "transit": 7602,
      "searching": 7603,
      "grandparents": 7604,
      "⠀⠀⠀": 7605,
      "discussed": 7606,
      "preferred": 7607,
      "educate": 7608,
      "switching": 7609,
      "rapid": 7610,
      "desperation": 7611,
      "promised": 7612,
      "colorado": 7613,
      "responsibility": 7614,
      "knocked": 7615,
      "gaining": 7616,
      "directions": 7617,
      "restaurants": 7618,
      "ssssssss": 7619,
      "threatening": 7620,
      "ghosted": 7621,
      "puppy": 7622,
      "virginity": 7623,
      "dumped": 7624,
      "initial": 7625,
      "financially": 7626,
      "legendary": 7627,
      "providing": 7628,
      "politician": 7629,
      "bacon": 7630,
      "bourne": 7631,
      "kissing": 7632,
      "fundament": 7633,
      "announced": 7634,
      "permanently": 7635,
      "communicate": 7636,
      "establishment": 7637,
      "surrounded": 7638,
      "resource": 7639,
      "stereotype": 7640,
      "gullible": 7641,
      "artifact": 7642,
      "piercing": 7643,
      "assaulted": 7644,
      "tuesday": 7645,
      "panties": 7646,
      ".'": 7647,
      "cree": 7648,
      "cnn": 7649,
      "fought": 7650,
      "glit": 7651,
      "hc": 7652,
      "hut": 7653,
      "ido": 7654,
      "iam": 7655,
      "jj": 7656,
      "ki": 7657,
      "mam": 7658,
      "mps": 7659,
      "rats": 7660,
      "sons": 7661,
      "treason": 7662,
      "vul": 7663,
      "vine": 7664,
      "inner": 7665,
      "remem": 7666,
      "retain": 7667,
      "metric": 7668,
      "ongest": 7669,
      "stack": 7670,
      "lected": 7671,
      "asshat": 7672,
      "bered": 7673,
      "begging": 7674,
      "noted": 7675,
      "heh": 7676,
      "haired": 7677,
      "sober": 7678,
      "soda": 7679,
      "loan": 7680,
      "licking": 7681,
      "forts": 7682,
      "forgiven": 7683,
      "..?": 7684,
      "admi": 7685,
      "pew": 7686,
      "tied": 7687,
      "riot": 7688,
      "unite": 7689,
      "unlucky": 7690,
      "chunk": 7691,
      "iring": 7692,
      "depre": 7693,
      "withdra": 7694,
      "extr": 7695,
      "endless": 7696,
      "astound": 7697,
      "whore": 7698,
      "wolf": 7699,
      "ahhhhh": 7700,
      "happiest": 7701,
      "scroll": 7702,
      "lookin": 7703,
      "offs": 7704,
      "cheated": 7705,
      "posters": 7706,
      "backed": 7707,
      "nevermind": 7708,
      "fried": 7709,
      "couch": 7710,
      "underground": 7711,
      "shoe": 7712,
      "commentator": 7713,
      "clou": 7714,
      "fili": 7715,
      "interests": 7716,
      "trips": 7717,
      "smashed": 7718,
      "magn": 7719,
      "carbon": 7720,
      "handy": 7721,
      "charming": 7722,
      "10k": 7723,
      "leftists": 7724,
      "cripp": 7725,
      "mming": 7726,
      "bury": 7727,
      "cuts": 7728,
      "laughs": 7729,
      "ggin": 7730,
      "halfway": 7731,
      "visited": 7732,
      "2014": 7733,
      "2015": 7734,
      "holds": 7735,
      "pattern": 7736,
      "patients": 7737,
      "motherfucker": 7738,
      "italy": 7739,
      "temple": 7740,
      "concerning": 7741,
      "transition": 7742,
      "shortly": 7743,
      "sisters": 7744,
      "grandmother": 7745,
      "trained": 7746,
      "violating": 7747,
      "produced": 7748,
      "wednes": 7749,
      "judges": 7750,
      "twitch": 7751,
      "siblings": 7752,
      "ethnic": 7753,
      "deliver": 7754,
      "jumped": 7755,
      "spotted": 7756,
      "squir": 7757,
      "invited": 7758,
      "languages": 7759,
      "tradit": 7760,
      "cooked": 7761,
      "asylum": 7762,
      "gradu": 7763,
      "dino": 7764,
      "attempted": 7765,
      "clueless": 7766,
      "tanks": 7767,
      "convention": 7768,
      "informative": 7769,
      "qualify": 7770,
      "weirder": 7771,
      "predict": 7772,
      "demanding": 7773,
      "devils": 7774,
      "ctives": 7775,
      "blatantly": 7776,
      "introduced": 7777,
      "washington": 7778,
      "opponents": 7779,
      "loyal": 7780,
      "reliable": 7781,
      "resources": 7782,
      "princi": 7783,
      "misogyn": 7784,
      "scientists": 7785,
      "philly": 7786,
      "bombs": 7787,
      "begins": 7788,
      "wikiped": 7789,
      "savage": 7790,
      "applaud": 7791,
      "turtles": 7792,
      "gtfo": 7793,
      "unicorn": 7794,
      "prequel": 7795,
      "frightening": 7796,
      "cannibal": 7797,
      ":'(": 7798,
      "intrigued": 7799,
      "arrogant": 7800,
      "treasure": 7801,
      "esteem": 7802,
      "arbitr": 7803,
      "remembered": 7804,
      "wednesday": 7805,
      "wikipedia": 7806,
      "\"*": 7807,
      "((": 7808,
      "1k": 7809,
      "39": 7810,
      "47": 7811,
      "db": 7812,
      "dess": 7813,
      "hd": 7814,
      "knight": 7815,
      "mies": 7816,
      "mult": 7817,
      "nj": 7818,
      "oe": 7819,
      "owo": 7820,
      "ras": 7821,
      "rist": 7822,
      "rants": 7823,
      "tad": 7824,
      "ull": 7825,
      "wack": 7826,
      "yuck": 7827,
      "thom": 7828,
      "thurs": 7829,
      "reha": 7830,
      "reaper": 7831,
      "ancient": 7832,
      "the_": 7833,
      "metro": 7834,
      "tos": 7835,
      "noon": 7836,
      "stain": 7837,
      "stair": 7838,
      "encount": 7839,
      "heels": 7840,
      "soy": 7841,
      "sover": 7842,
      "dome": 7843,
      "liqu": 7844,
      "acity": 7845,
      "rocket": 7846,
      "verb": 7847,
      "cowards": 7848,
      "pel": 7849,
      "rily": 7850,
      "ribs": 7851,
      "unting": 7852,
      "unacceptable": 7853,
      "chup": 7854,
      "susp": 7855,
      "febru": 7856,
      "opt": 7857,
      "exagger": 7858,
      "bore": 7859,
      "prescri": 7860,
      "istan": 7861,
      "typed": 7862,
      "saves": 7863,
      "items": 7864,
      "spite": 7865,
      "thankful": 7866,
      "assign": 7867,
      "gray": 7868,
      "letters": 7869,
      "bucket": 7870,
      "tale": 7871,
      "shops": 7872,
      "blas": 7873,
      "commented": 7874,
      "lasted": 7875,
      "correlation": 7876,
      "steak": 7877,
      "creator": 7878,
      "saddest": 7879,
      "string": 7880,
      "shade": 7881,
      "solves": 7882,
      "owning": 7883,
      "intern": 7884,
      "morally": 7885,
      "parti": 7886,
      "trees": 7887,
      "nerves": 7888,
      "freely": 7889,
      "syn": 7890,
      "blocking": 7891,
      "signal": 7892,
      "priest": 7893,
      "walks": 7894,
      "warned": 7895,
      "attend": 7896,
      "attach": 7897,
      "ketchup": 7898,
      "visiting": 7899,
      "instru": 7900,
      "drove": 7901,
      "archy": 7902,
      "clapping": 7903,
      "hydr": 7904,
      "screwing": 7905,
      "pissing": 7906,
      "beaten": 7907,
      "refusing": 7908,
      "reflection": 7909,
      "avat": 7910,
      "traitor": 7911,
      "depth": 7912,
      "brothers": 7913,
      "mentioning": 7914,
      "snack": 7915,
      "publicity": 7916,
      "sunset": 7917,
      "furnit": 7918,
      "placing": 7919,
      "speaker": 7920,
      "appealing": 7921,
      "accidents": 7922,
      "implied": 7923,
      "successfully": 7924,
      "cleaning": 7925,
      "strangely": 7926,
      "council": 7927,
      "rapists": 7928,
      "raptors": 7929,
      "invent": 7930,
      "wheel": 7931,
      "contracts": 7932,
      "repulsive": 7933,
      "chronic": 7934,
      "bbc": 7935,
      "bbq": 7936,
      "frustrated": 7937,
      "representation": 7938,
      "mcdonald": 7939,
      "hideous": 7940,
      "addicted": 7941,
      "potentially": 7942,
      "conditions": 7943,
      "quarters": 7944,
      "threaten": 7945,
      "spiritual": 7946,
      "tanking": 7947,
      "harassing": 7948,
      "terrorism": 7949,
      "weirdest": 7950,
      "douchebag": 7951,
      "biological": 7952,
      "libertarians": 7953,
      "consuming": 7954,
      "hipster": 7955,
      "identifying": 7956,
      "thrash": 7957,
      "contributing": 7958,
      "laptop": 7959,
      "candidates": 7960,
      "economics": 7961,
      "buzzfeed": 7962,
      "++++": 7963,
      "steelers": 7964,
      "misogyny": 7965,
      "intolerant": 7966,
      "objectively": 7967,
      "determined": 7968,
      "differences": 7969,
      "exercise": 7970,
      "wizard": 7971,
      "nauseous": 7972,
      "imperial": 7973,
      "athletic": 7974,
      "professionals": 7975,
      "costume": 7976,
      "brooklyn": 7977,
      "simultaneously": 7978,
      "thursday": 7979,
      "encountered": 7980,
      "february": 7981,
      "furniture": 7982,
      "$$": 7983,
      ".**": 7984,
      "72": 7985,
      "89": 7986,
      "8th": 7987,
      "cw": 7988,
      "cé": 7989,
      "ffe": 7990,
      "lv": 7991,
      "lis": 7992,
      "lves": 7993,
      "leng": 7994,
      "ng": 7995,
      "nical": 7996,
      "oreg": 7997,
      "pens": 7998,
      "ux": 7999,
      "wut": 8000,
      "👏👏": 8001,
      "💯💯": 8002,
      "oul": 8003,
      "renew": 8004,
      "rewind": 8005,
      "ancé": 8006,
      "itly": 8007,
      "toe": 8008,
      "tories": 8009,
      "stable": 8010,
      "stating": 8011,
      "alas": 8012,
      "orleans": 8013,
      "behave": 8014,
      "veter": 8015,
      "seven": 8016,
      "arab": 8017,
      "lover": 8018,
      "esp": 8019,
      "doord": 8020,
      "whist": 8021,
      "libs": 8022,
      "fork": 8023,
      "acies": 8024,
      "acknowledge": 8025,
      "coworker": 8026,
      "abusing": 8027,
      "ribut": 8028,
      "unhealthy": 8029,
      "chal": 8030,
      "suits": 8031,
      "irish": 8032,
      "justified": 8033,
      "tering": 8034,
      "uplifting": 8035,
      "willfully": 8036,
      "concus": 8037,
      "contest": 8038,
      "thers": 8039,
      "excus": 8040,
      "cakes": 8041,
      "proved": 8042,
      "proceed": 8043,
      "guest": 8044,
      "bob": 8045,
      "prest": 8046,
      "preach": 8047,
      "ndp": 8048,
      "reduce": 8049,
      "wolves": 8050,
      "ques": 8051,
      "scrolling": 8052,
      "spare": 8053,
      "spine": 8054,
      "needing": 8055,
      "sorrow": 8056,
      "abled": 8057,
      "].\"": 8058,
      "grasp": 8059,
      "lowkey": 8060,
      "subway": 8061,
      "couver": 8062,
      "applies": 8063,
      "blu": 8064,
      "fiancé": 8065,
      "clemson": 8066,
      "memorable": 8067,
      "county": 8068,
      "counting": 8069,
      "papers": 8070,
      "shaped": 8071,
      "choke": 8072,
      "choked": 8073,
      "parking": 8074,
      "treating": 8075,
      "leftist": 8076,
      "images": 8077,
      "imaginary": 8078,
      "lighting": 8079,
      "skate": 8080,
      "settle": 8081,
      "valent": 8082,
      "signals": 8083,
      "cynical": 8084,
      "witty": 8085,
      "chable": 8086,
      "landlord": 8087,
      "finest": 8088,
      "spoke": 8089,
      "closing": 8090,
      "generations": 8091,
      "denial": 8092,
      "existent": 8093,
      "btc": 8094,
      "30s": 8095,
      "allows": 8096,
      "purch": 8097,
      "refused": 8098,
      "scoop": 8099,
      "fixing": 8100,
      "nipp": 8101,
      "suckers": 8102,
      "smelling": 8103,
      "targets": 8104,
      "ooooh": 8105,
      "humili": 8106,
      "nude": 8107,
      "ranch": 8108,
      "fascists": 8109,
      "slipper": 8110,
      "practically": 8111,
      "strip": 8112,
      "vaccine": 8113,
      "dodgers": 8114,
      "billions": 8115,
      "vancouver": 8116,
      "folk": 8117,
      "aires": 8118,
      "corners": 8119,
      "reckless": 8120,
      "flower": 8121,
      "neckbeard": 8122,
      "affles": 8123,
      "masterpiece": 8124,
      "stalking": 8125,
      "anarchism": 8126,
      "fouls": 8127,
      "sacri": 8128,
      "corruption": 8129,
      "struggles": 8130,
      "leadership": 8131,
      "receiver": 8132,
      "millennial": 8133,
      "dishone": 8134,
      "correcting": 8135,
      "narcissistic": 8136,
      "organs": 8137,
      "tacos": 8138,
      "shouting": 8139,
      "vehicles": 8140,
      "fabric": 8141,
      "experts": 8142,
      "robber": 8143,
      "poetry": 8144,
      "saurus": 8145,
      "allergic": 8146,
      "saudi": 8147,
      "devastating": 8148,
      "territory": 8149,
      "rhetor": 8150,
      "library": 8151,
      "hormones": 8152,
      "cognitive": 8153,
      "clouds": 8154,
      "oregon": 8155,
      "doordash": 8156,
      "slippery": 8157,
      "41": 8158,
      "44": 8159,
      "67": 8160,
      "aire": 8161,
      "das": 8162,
      "enorm": 8163,
      "eternal": 8164,
      "fate": 8165,
      "fist": 8166,
      "lpt": 8167,
      "mately": 8168,
      "mls": 8169,
      "npc": 8170,
      "oly": 8171,
      "ored": 8172,
      "oven": 8173,
      "ptions": 8174,
      "snor": 8175,
      "vig": 8176,
      "zion": 8177,
      "thug": 8178,
      "inability": 8179,
      "replay": 8180,
      "recover": 8181,
      "recru": 8182,
      "rebound": 8183,
      "meow": 8184,
      "eria": 8185,
      "noob": 8186,
      "notori": 8187,
      "orgas": 8188,
      "leth": 8189,
      "lement": 8190,
      "beef": 8191,
      "veg": 8192,
      "semitism": 8193,
      "hail": 8194,
      "lyric": 8195,
      "amer": 8196,
      "soo": 8197,
      "loathe": 8198,
      "amusing": 8199,
      "wears": 8200,
      "hog": 8201,
      "hoard": 8202,
      "holic": 8203,
      "geor": 8204,
      "unreasonable": 8205,
      "unsett": 8206,
      "unemployment": 8207,
      "deals": 8208,
      "withdraw": 8209,
      "updo": 8210,
      "updates": 8211,
      "worn": 8212,
      "uling": 8213,
      "ultra": 8214,
      "prom": 8215,
      "boil": 8216,
      "scrub": 8217,
      "ums": 8218,
      "muh": 8219,
      "spi": 8220,
      "spouse": 8221,
      "greatly": 8222,
      "thoughtful": 8223,
      "persona": 8224,
      "happyfriendly": 8225,
      "applying": 8226,
      "shitposts": 8227,
      "beforehand": 8228,
      "stepped": 8229,
      "brew": 8230,
      "breast": 8231,
      "craving": 8232,
      "relations": 8233,
      "drum": 8234,
      "headlines": 8235,
      "agreement": 8236,
      "france": 8237,
      "bases": 8238,
      "throughout": 8239,
      "dys": 8240,
      "versary": 8241,
      "cries": 8242,
      "aska": 8243,
      "banana": 8244,
      "recipe": 8245,
      "advis": 8246,
      "anese": 8247,
      "commie": 8248,
      "viewers": 8249,
      "lander": 8250,
      "visa": 8251,
      "2011": 8252,
      "experiment": 8253,
      "midnight": 8254,
      "generate": 8255,
      "denver": 8256,
      "communities": 8257,
      "classy": 8258,
      "filter": 8259,
      "profits": 8260,
      "testing": 8261,
      "miami": 8262,
      "safely": 8263,
      "followers": 8264,
      "ultimately": 8265,
      "writer": 8266,
      "snug": 8267,
      "complaints": 8268,
      "buildings": 8269,
      "punched": 8270,
      "silent": 8271,
      "blamed": 8272,
      "larger": 8273,
      "2009": 8274,
      "hhhhhhhh": 8275,
      "equality": 8276,
      "nud": 8277,
      "reactions": 8278,
      "package": 8279,
      "innov": 8280,
      "grim": 8281,
      "exploit": 8282,
      "cracked": 8283,
      "interviews": 8284,
      "consistency": 8285,
      "lux": 8286,
      "hypocritical": 8287,
      "pheno": 8288,
      "70s": 8289,
      "satisfaction": 8290,
      "harmful": 8291,
      "anarchy": 8292,
      "punching": 8293,
      "measles": 8294,
      "campus": 8295,
      "solely": 8296,
      "mountains": 8297,
      "indicate": 8298,
      "experiencing": 8299,
      "spoiler": 8300,
      "japanese": 8301,
      "profitable": 8302,
      "cousins": 8303,
      "guarantee": 8304,
      "desktop": 8305,
      "oblivious": 8306,
      "wounds": 8307,
      "encouragement": 8308,
      "irritating": 8309,
      "🦀🦀🦀🦀": 8310,
      "associated": 8311,
      "louis": 8312,
      "hysterical": 8313,
      "woooosh": 8314,
      "perceived": 8315,
      "repeatedly": 8316,
      "kinky": 8317,
      "temperature": 8318,
      "temporary": 8319,
      "sjw": 8320,
      "prosecut": 8321,
      "neutral": 8322,
      "jelly": 8323,
      "elderly": 8324,
      "suffoc": 8325,
      "fragile": 8326,
      "dissonance": 8327,
      "piercings": 8328,
      "vulner": 8329,
      "withdrawal": 8330,
      "olym": 8331,
      "happyfriendlybot": 8332,
      "!?!": 8333,
      "awake": 8334,
      "dney": 8335,
      "ea": 8336,
      "eight": 8337,
      "eze": 8338,
      "fig": 8339,
      "gment": 8340,
      "gaw": 8341,
      "juni": 8342,
      "nfc": 8343,
      "raged": 8344,
      "srs": 8345,
      "ssover": 8346,
      "twin": 8347,
      "vice": 8348,
      "wages": 8349,
      "”?": 8350,
      "inconsistent": 8351,
      "rein": 8352,
      "rebel": 8353,
      "removing": 8354,
      "itals": 8355,
      "nood": 8356,
      "stir": 8357,
      "enix": 8358,
      "lex": 8359,
      "bean": 8360,
      "veins": 8361,
      "seas": 8362,
      "hesit": 8363,
      "aring": 8364,
      "sored": 8365,
      "soap": 8366,
      "forgetting": 8367,
      "forces": 8368,
      "llll": 8369,
      "amused": 8370,
      "acknowled": 8371,
      "icient": 8372,
      "cope": 8373,
      "abilities": 8374,
      "outing": 8375,
      "mos": 8376,
      "deaf": 8377,
      "decre": 8378,
      "felon": 8379,
      "opposition": 8380,
      "teens": 8381,
      "compromise": 8382,
      "proces": 8383,
      "proportion": 8384,
      "elit": 8385,
      "illegally": 8386,
      "pred": 8387,
      "presu": 8388,
      "premier": 8389,
      "rah": 8390,
      "whoo": 8391,
      "igs": 8392,
      "sage": 8393,
      "lawn": 8394,
      "theirs": 8395,
      "prick": 8396,
      "prank": 8397,
      "hopeful": 8398,
      "dismiss": 8399,
      "assy": 8400,
      "overcome": 8401,
      "downs": 8402,
      "download": 8403,
      "glu": 8404,
      "glory": 8405,
      "firing": 8406,
      "wherever": 8407,
      "april": 8408,
      "wai": 8409,
      "wax": 8410,
      "afternoon": 8411,
      "diarr": 8412,
      "creates": 8413,
      "genet": 8414,
      "struck": 8415,
      "studi": 8416,
      "sham": 8417,
      "shamed": 8418,
      "magical": 8419,
      "carried": 8420,
      "fron": 8421,
      "fridge": 8422,
      "curren": 8423,
      "jet": 8424,
      "chargers": 8425,
      "hometown": 8426,
      "payment": 8427,
      "listens": 8428,
      "sydney": 8429,
      "welfare": 8430,
      "senses": 8431,
      "pork": 8432,
      "portray": 8433,
      "confli": 8434,
      "confess": 8435,
      "ggers": 8436,
      "minecraft": 8437,
      "starters": 8438,
      "cringed": 8439,
      "pissy": 8440,
      "pursue": 8441,
      "reflect": 8442,
      "trait": 8443,
      "creeps": 8444,
      "mainly": 8445,
      "satan": 8446,
      "murde": 8447,
      "floating": 8448,
      "brainwashed": 8449,
      "bullies": 8450,
      "198": 8451,
      "silence": 8452,
      "approved": 8453,
      "crossover": 8454,
      "2008": 8455,
      "producers": 8456,
      "dddd": 8457,
      "mrs": 8458,
      "practical": 8459,
      "secular": 8460,
      "texts": 8461,
      "despise": 8462,
      "chills": 8463,
      "frustration": 8464,
      "capitalists": 8465,
      "performing": 8466,
      "windshield": 8467,
      "buttons": 8468,
      "carrying": 8469,
      "pairs": 8470,
      "pregnancy": 8471,
      "anticip": 8472,
      "continuing": 8473,
      "reckon": 8474,
      "confirmation": 8475,
      "gigg": 8476,
      "operation": 8477,
      "traveling": 8478,
      "wealthy": 8479,
      "scenarios": 8480,
      "survivor": 8481,
      "contribute": 8482,
      "ww2": 8483,
      "advertise": 8484,
      "conveniently": 8485,
      "bisexual": 8486,
      "funniest": 8487,
      "improved": 8488,
      "established": 8489,
      "passionate": 8490,
      "categ": 8491,
      "endorse": 8492,
      "footage": 8493,
      "destruction": 8494,
      "delayed": 8495,
      "dentist": 8496,
      "tampa": 8497,
      "iasm": 8498,
      "dynamic": 8499,
      "intimidating": 8500,
      "enthusiasm": 8501,
      "diabet": 8502,
      "embrace": 8503,
      "cuddling": 8504,
      "flirting": 8505,
      "sketchy": 8506,
      "cigarettes": 8507,
      "accepting": 8508,
      "divided": 8509,
      "astounding": 8510,
      "avatar": 8511,
      "currency": 8512,
      "))": 8513,
      ",\"": 8514,
      "36": 8515,
      "6th": 8516,
      "]’": 8517,
      "aes": 8518,
      "aquar": 8519,
      "bli": 8520,
      "blit": 8521,
      "bak": 8522,
      "boun": 8523,
      "baked": 8524,
      "claw": 8525,
      "dak": 8526,
      "fid": 8527,
      "flies": 8528,
      "fond": 8529,
      "gloves": 8530,
      "hp": 8531,
      "iency": 8532,
      "kins": 8533,
      "m8": 8534,
      "mn": 8535,
      "mlm": 8536,
      "pharm": 8537,
      "rick": 8538,
      "twat": 8539,
      "tang": 8540,
      "tender": 8541,
      "ucks": 8542,
      "ufc": 8543,
      "zes": 8544,
      "inaccurate": 8545,
      "recre": 8546,
      "isol": 8547,
      "melts": 8548,
      "ingred": 8549,
      "tower": 8550,
      "toys": 8551,
      "stam": 8552,
      "stagger": 8553,
      "stacked": 8554,
      "ench": 8555,
      "assets": 8556,
      "behalf": 8557,
      "selection": 8558,
      "heap": 8559,
      "edmon": 8560,
      "soil": 8561,
      "loo": 8562,
      "loot": 8563,
      "arena": 8564,
      "formal": 8565,
      "lla": 8566,
      "aco": 8567,
      "acon": 8568,
      "acade": 8569,
      "rose": 8570,
      "adul": 8571,
      "unreal": 8572,
      "uninformed": 8573,
      "nephew": 8574,
      "delive": 8575,
      "default": 8576,
      "whatabout": 8577,
      "uploaded": 8578,
      "contains": 8579,
      "plates": 8580,
      "exclu": 8581,
      "ula": 8582,
      "agents": 8583,
      "sss": 8584,
      "ilarly": 8585,
      "bois": 8586,
      "bold": 8587,
      "boop": 8588,
      "boards": 8589,
      "arts": 8590,
      "manu": 8591,
      "blem": 8592,
      "kingdom": 8593,
      "perk": 8594,
      "fathom": 8595,
      "spy": 8596,
      "affili": 8597,
      "offering": 8598,
      "stoked": 8599,
      "cia": 8600,
      "discover": 8601,
      "disregard": 8602,
      "actured": 8603,
      "funded": 8604,
      "intens": 8605,
      "grit": 8606,
      "voices": 8607,
      "glue": 8608,
      "friggin": 8609,
      "berry": 8610,
      "ducks": 8611,
      "hier": 8612,
      "weeb": 8613,
      "blin": 8614,
      "shitting": 8615,
      "cric": 8616,
      "insen": 8617,
      "otic": 8618,
      "marked": 8619,
      "margin": 8620,
      "girlfriends": 8621,
      "obsc": 8622,
      "turk": 8623,
      "strongest": 8624,
      "shaking": 8625,
      "shaving": 8626,
      "sexism": 8627,
      "drun": 8628,
      "internal": 8629,
      "farmers": 8630,
      "bashing": 8631,
      "certi": 8632,
      "flaming": 8633,
      "ashville": 8634,
      "versal": 8635,
      "similarly": 8636,
      "barn": 8637,
      "barri": 8638,
      "barber": 8639,
      "skull": 8640,
      "biology": 8641,
      "banning": 8642,
      "dealer": 8643,
      "braves": 8644,
      "painted": 8645,
      "compass": 8646,
      "resses": 8647,
      "visual": 8648,
      "pedest": 8649,
      "controlling": 8650,
      "governments": 8651,
      "madam": 8652,
      "ifications": 8653,
      "motherfucking": 8654,
      "jerking": 8655,
      "liberty": 8656,
      "respects": 8657,
      "disappear": 8658,
      "photoshop": 8659,
      "gression": 8660,
      "sunshine": 8661,
      "approval": 8662,
      "crossed": 8663,
      "goalie": 8664,
      "humour": 8665,
      "avoiding": 8666,
      "sibling": 8667,
      "implies": 8668,
      "royal": 8669,
      "personalities": 8670,
      "pilot": 8671,
      "compete": 8672,
      "rapist": 8673,
      "practices": 8674,
      "wheels": 8675,
      "willingly": 8676,
      "repent": 8677,
      "fluid": 8678,
      "fluffy": 8679,
      "skyrim": 8680,
      "migra": 8681,
      "opposing": 8682,
      "grip": 8683,
      "longest": 8684,
      "connected": 8685,
      "automatic": 8686,
      ":-/": 8687,
      "greek": 8688,
      "?!?!?!": 8689,
      "candy": 8690,
      "repeating": 8691,
      "scamming": 8692,
      "phrased": 8693,
      "individuals": 8694,
      "divorced": 8695,
      "battles": 8696,
      "pupper": 8697,
      "fools": 8698,
      "increased": 8699,
      "tantrum": 8700,
      "operating": 8701,
      "sweetest": 8702,
      "activated": 8703,
      "demonstr": 8704,
      "initially": 8705,
      "sanity": 8706,
      "bottles": 8707,
      "dominant": 8708,
      "quietly": 8709,
      "misery": 8710,
      "primaries": 8711,
      "freakin": 8712,
      "journalists": 8713,
      "decline": 8714,
      "comprehension": 8715,
      "referenced": 8716,
      "tattoos": 8717,
      "snapchat": 8718,
      "exclusively": 8719,
      "oxford": 8720,
      "advertising": 8721,
      "latter": 8722,
      "bigoted": 8723,
      "competence": 8724,
      "festival": 8725,
      "dutch": 8726,
      "woosh": 8727,
      "scientist": 8728,
      "googling": 8729,
      "exhausted": 8730,
      "collapse": 8731,
      "vaxxers": 8732,
      "android": 8733,
      "thirsty": 8734,
      "losers": 8735,
      "coolest": 8736,
      "rescue": 8737,
      "goofy": 8738,
      "scienti": 8739,
      "adventure": 8740,
      "swedish": 8741,
      "limits": 8742,
      "sheltered": 8743,
      "papa": 8744,
      "volunte": 8745,
      ";-)": 8746,
      "celtic": 8747,
      "smarter": 8748,
      "john": 8749,
      "phenomen": 8750,
      "blitz": 8751,
      "recreational": 8752,
      "ingredients": 8753,
      "edmonton": 8754,
      "delivered": 8755,
      "whataboutism": 8756,
      "96": 8757,
      "]?!": 8758,
      "bp": 8759,
      "cab": 8760,
      "dv": 8761,
      "dye": 8762,
      "dunk": 8763,
      "eco": 8764,
      "fg": 8765,
      "flaw": 8766,
      "genders": 8767,
      "jazz": 8768,
      "kay": 8769,
      "kong": 8770,
      "lbs": 8771,
      "llion": 8772,
      "muse": 8773,
      "mile": 8774,
      "mtv": 8775,
      "pam": 8776,
      "ration": 8777,
      "scape": 8778,
      "tends": 8779,
      "wth": 8780,
      "wrest": 8781,
      "zi": 8782,
      "👍🏻": 8783,
      "thigh": 8784,
      "thai": 8785,
      "rewards": 8786,
      "replaced": 8787,
      "meals": 8788,
      "ingen": 8789,
      "tok": 8790,
      "nom": 8791,
      "stare": 8792,
      "stressed": 8793,
      "alm": 8794,
      "alli": 8795,
      "ortho": 8796,
      "bever": 8797,
      "sections": 8798,
      "heals": 8799,
      "lowest": 8800,
      "whale": 8801,
      "libt": 8802,
      "amin": 8803,
      "acing": 8804,
      "admir": 8805,
      "pean": 8806,
      "peers": 8807,
      "outright": 8808,
      "mocking": 8809,
      "sushi": 8810,
      "powered": 8811,
      "irts": 8812,
      "irrational": 8813,
      "dee": 8814,
      "deck": 8815,
      "degrad": 8816,
      "feat": 8817,
      "maps": 8818,
      "concep": 8819,
      "comfy": 8820,
      "caut": 8821,
      "eline": 8822,
      "prey": 8823,
      "ista": 8824,
      "whom": 8825,
      "tap": 8826,
      "mans": 8827,
      "umble": 8828,
      "ohhhh": 8829,
      "laughter": 8830,
      "betting": 8831,
      "offend": 8832,
      "backing": 8833,
      "sorted": 8834,
      "liter": 8835,
      "comedic": 8836,
      "cials": 8837,
      "diss": 8838,
      "disgu": 8839,
      "anged": 8840,
      "append": 8841,
      "apples": 8842,
      "brid": 8843,
      "ffff": 8844,
      "triple": 8845,
      "trillion": 8846,
      "problematic": 8847,
      "owns": 8848,
      "morals": 8849,
      "frick": 8850,
      "jewel": 8851,
      "homework": 8852,
      "cameras": 8853,
      "lightning": 8854,
      "questioning": 8855,
      "simpl": 8856,
      "rence": 8857,
      "efforts": 8858,
      "dealt": 8859,
      "pressing": 8860,
      "courts": 8861,
      "fighter": 8862,
      "region": 8863,
      "compat": 8864,
      "incen": 8865,
      "edition": 8866,
      "politically": 8867,
      "ialism": 8868,
      "generous": 8869,
      "communists": 8870,
      "profound": 8871,
      "medium": 8872,
      "momentum": 8873,
      "linking": 8874,
      "refuses": 8875,
      "deaths": 8876,
      "donut": 8877,
      "donation": 8878,
      "pencil": 8879,
      "traits": 8880,
      "creeped": 8881,
      "attract": 8882,
      "elev": 8883,
      "rambling": 8884,
      "demographic": 8885,
      "binge": 8886,
      "punishing": 8887,
      "criteria": 8888,
      "vicious": 8889,
      "physics": 8890,
      "2003": 8891,
      "psych": 8892,
      "psyche": 8893,
      "summary": 8894,
      "cheeks": 8895,
      "neglect": 8896,
      "negativity": 8897,
      "confirms": 8898,
      "techni": 8899,
      "presidency": 8900,
      "lanes": 8901,
      "directed": 8902,
      "narrow": 8903,
      "randomly": 8904,
      "decides": 8905,
      "supposedly": 8906,
      "strikes": 8907,
      "axy": 8908,
      "finale": 8909,
      "soulless": 8910,
      "neighbour": 8911,
      "bothering": 8912,
      "presses": 8913,
      "representative": 8914,
      "knocks": 8915,
      "tracking": 8916,
      "holly": 8917,
      "aimed": 8918,
      "analy": 8919,
      "affects": 8920,
      "tricked": 8921,
      "judgement": 8922,
      "minorities": 8923,
      "continued": 8924,
      "dumpster": 8925,
      "ownership": 8926,
      "soldiers": 8927,
      "gather": 8928,
      "chuckled": 8929,
      "cowboy": 8930,
      "borderline": 8931,
      "podcasts": 8932,
      "swap": 8933,
      "savings": 8934,
      "jackass": 8935,
      "manipulation": 8936,
      "freaky": 8937,
      "swimming": 8938,
      "replacement": 8939,
      "gatekeeping": 8940,
      "galaxy": 8941,
      "occasions": 8942,
      "delightful": 8943,
      "shockingly": 8944,
      "introduce": 8945,
      "distraction": 8946,
      "oppression": 8947,
      "frankly": 8948,
      "pearl": 8949,
      "recorded": 8950,
      "princess": 8951,
      "tastes": 8952,
      "tolerance": 8953,
      "stroke": 8954,
      "doomed": 8955,
      "fooled": 8956,
      "browsing": 8957,
      "99999999": 8958,
      "wubwubwubwubwubwubwubwub": 8959,
      "remarkable": 8960,
      "intellectual": 8961,
      "perpetu": 8962,
      "precisely": 8963,
      "zombie": 8964,
      "vaccinate": 8965,
      "electrical": 8966,
      "observation": 8967,
      "colonialism": 8968,
      "veggies": 8969,
      "forgiveness": 8970,
      "traditional": 8971,
      "blasphe": 8972,
      "excusable": 8973,
      "enormous": 8974,
      "unsettling": 8975,
      "diarrhea": 8976,
      "obscure": 8977,
      "orthodox": 8978,
      "3d": 8979,
      "3k": 8980,
      "42": 8981,
      "82": 8982,
      "ape": 8983,
      "avo": 8984,
      "bare": 8985,
      "busted": 8986,
      "dj": 8987,
      "dx": 8988,
      "dens": 8989,
      "dank": 8990,
      "dicked": 8991,
      "ehhh": 8992,
      "fame": 8993,
      "fled": 8994,
      "gc": 8995,
      "gins": 8996,
      "jv": 8997,
      "kra": 8998,
      "kom": 8999,
      "knights": 9000,
      "lph": 9001,
      "liness": 9002,
      "naw": 9003,
      "naught": 9004,
      "ninj": 9005,
      "nashville": 9006,
      "ome": 9007,
      "ove": 9008,
      "olig": 9009,
      "pour": 9010,
      "pard": 9011,
      "sni": 9012,
      "skept": 9013,
      "sassy": 9014,
      "tto": 9015,
      "tide": 9016,
      "uno": 9017,
      "vin": 9018,
      "vast": 9019,
      "vap": 9020,
      "wu": 9021,
      "wwe": 9022,
      "wrap": 9023,
      "yers": 9024,
      "yards": 9025,
      "😍😍": 9026,
      "thot": 9027,
      "infect": 9028,
      "insecur": 9029,
      "infection": 9030,
      "incompetent": 9031,
      "themed": 9032,
      "melo": 9033,
      "melt": 9034,
      "merely": 9035,
      "ingu": 9036,
      "tobac": 9037,
      "alber": 9038,
      "alaska": 9039,
      "ensure": 9040,
      "asse": 9041,
      "bees": 9042,
      "sey": 9043,
      "lore": 9044,
      "loans": 9045,
      "esh": 9046,
      "dot": 9047,
      "ayyy": 9048,
      "formed": 9049,
      "amy": 9050,
      "amir": 9051,
      "wig": 9052,
      "icated": 9053,
      "robots": 9054,
      "hoped": 9055,
      "verbal": 9056,
      "coins": 9057,
      "coaches": 9058,
      "coherent": 9059,
      "tile": 9060,
      "rix": 9061,
      "unsure": 9062,
      "unsub": 9063,
      "unblock": 9064,
      "outlets": 9065,
      "nels": 9066,
      "neuro": 9067,
      "fem": 9068,
      "justification": 9069,
      "opi": 9070,
      "shining": 9071,
      "shud": 9072,
      "antise": 9073,
      "wording": 9074,
      "usions": 9075,
      "ext": 9076,
      "external": 9077,
      "sheet": 9078,
      "prep": 9079,
      "raphy": 9080,
      "manner": 9081,
      "maniac": 9082,
      "savi": 9083,
      "harry": 9084,
      "chees": 9085,
      "joint": 9086,
      "comend": 9087,
      "disabled": 9088,
      "funds": 9089,
      "funeral": 9090,
      "finals": 9091,
      "buried": 9092,
      "helmet": 9093,
      "serves": 9094,
      "misinformation": 9095,
      "misrepresent": 9096,
      "digest": 9097,
      "bliss": 9098,
      "commentary": 9099,
      "ansas": 9100,
      "brick": 9101,
      "matching": 9102,
      "ffer": 9103,
      "ditch": 9104,
      "fiance": 9105,
      "nicely": 9106,
      "clevel": 9107,
      "memor": 9108,
      "20k": 9109,
      "legals": 9110,
      "smiling": 9111,
      "countless": 9112,
      "genre": 9113,
      "magaz": 9114,
      "magically": 9115,
      "carrot": 9116,
      "****": 9117,
      "sidebar": 9118,
      "torn": 9119,
      "curb": 9120,
      "emblem": 9121,
      "tively": 9122,
      "ensla": 9123,
      "payments": 9124,
      "easiest": 9125,
      "fuk": 9126,
      "nerve": 9127,
      "freezing": 9128,
      "borrow": 9129,
      "goddam": 9130,
      "banks": 9131,
      "cents": 9132,
      "foundation": 9133,
      "prize": 9134,
      "july": 9135,
      "beautifully": 9136,
      "parenting": 9137,
      "chaos": 9138,
      "closest": 9139,
      "command": 9140,
      "breakup": 9141,
      "breakers": 9142,
      "tutori": 9143,
      "phoenix": 9144,
      "drool": 9145,
      "staring": 9146,
      "clim": 9147,
      "sharp": 9148,
      "specified": 9149,
      "scoo": 9150,
      "inesses": 9151,
      "pengu": 9152,
      "tember": 9153,
      "rounder": 9154,
      "octo": 9155,
      "concert": 9156,
      "dreaming": 9157,
      "punished": 9158,
      "eeeee": 9159,
      "doubtful": 9160,
      "flavor": 9161,
      "styles": 9162,
      "soccer": 9163,
      "productive": 9164,
      "appeal": 9165,
      "prayer": 9166,
      "grav": 9167,
      "upsetting": 9168,
      "ranks": 9169,
      "confirming": 9170,
      "diction": 9171,
      "slaughter": 9172,
      "boxing": 9173,
      "roller": 9174,
      "suggests": 9175,
      "deciding": 9176,
      "kicker": 9177,
      "invas": 9178,
      "entertained": 9179,
      "texting": 9180,
      "hahahahahaha": 9181,
      "promising": 9182,
      "hamster": 9183,
      "designs": 9184,
      "explore": 9185,
      "sweater": 9186,
      "gorilla": 9187,
      "cracking": 9188,
      "criticizing": 9189,
      "defenders": 9190,
      "ratio": 9191,
      "subscribers": 9192,
      "hypothet": 9193,
      "alternate": 9194,
      "circlejerk": 9195,
      "authority": 9196,
      "continuous": 9197,
      "challenging": 9198,
      "terminal": 9199,
      "terminology": 9200,
      "operate": 9201,
      "activities": 9202,
      "motivation": 9203,
      "aaaay": 9204,
      "ikr": 9205,
      "emails": 9206,
      "stressful": 9207,
      "reports": 9208,
      "intimacy": 9209,
      "referencing": 9210,
      "spoilers": 9211,
      "accomplishment": 9212,
      "toothpaste": 9213,
      "oppressive": 9214,
      "teleport": 9215,
      "websites": 9216,
      "constitution": 9217,
      "jacket": 9218,
      "eliminated": 9219,
      "betrayed": 9220,
      "occurred": 9221,
      "duty": 9222,
      "lords": 9223,
      "tasted": 9224,
      "inspiring": 9225,
      "pipeline": 9226,
      "statistics": 9227,
      "approaching": 9228,
      "sponge": 9229,
      "sneaky": 9230,
      "grinding": 9231,
      "forums": 9232,
      "reduction": 9233,
      "eeeeeeeeeeeeeeeeeeeeeeeeeeeeeeee": 9234,
      "sabres": 9235,
      "adopted": 9236,
      "infinite": 9237,
      "paralle": 9238,
      "interpretation": 9239,
      "warriors": 9240,
      "inherently": 9241,
      "kittens": 9242,
      "chemicals": 9243,
      "traumat": 9244,
      "district": 9245,
      "sustainable": 9246,
      "thief": 9247,
      "september": 9248,
      "turnover": 9249,
      "length": 9250,
      "sacrific": 9251,
      "snorting": 9252,
      "orgasm": 9253,
      "blizz": 9254,
      "pharmacy": 9255,
      "insensitive": 9256,
      "museum": 9257,
      "naughty": 9258,
      "amirite": 9259,
      "cleveland": 9260,
      "):": 9261,
      "350": 9262,
      "cf": 9263,
      "cad": 9264,
      "cgi": 9265,
      "df": 9266,
      "dice": 9267,
      "dirt": 9268,
      "fp": 9269,
      "kicks": 9270,
      "lw": 9271,
      "lul": 9272,
      "lash": 9273,
      "lining": 9274,
      "ota": 9275,
      "oms": 9276,
      "rink": 9277,
      "rushed": 9278,
      "t_": 9279,
      "tm": 9280,
      "tch": 9281,
      "twel": 9282,
      "uation": 9283,
      "ubi": 9284,
      "vod": 9285,
      "wd": 9286,
      "wink": 9287,
      "xl": 9288,
      "yog": 9289,
      "’.": 9290,
      "infil": 9291,
      "oured": 9292,
      "reno": 9293,
      "recon": 9294,
      "reacted": 9295,
      "anthro": 9296,
      "isan": 9297,
      "theart": 9298,
      "melee": 9299,
      "alert": 9300,
      "leak": 9301,
      "heated": 9302,
      "ari": 9303,
      "sob": 9304,
      "soviet": 9305,
      "locks": 9306,
      "whil": 9307,
      "whine": 9308,
      "aye": 9309,
      "amd": 9310,
      "ambit": 9311,
      "acer": 9312,
      "roid": 9313,
      "adds": 9314,
      "coy": 9315,
      "tiring": 9316,
      "uncommon": 9317,
      "uncondit": 9318,
      "pox": 9319,
      "popped": 9320,
      "popping": 9321,
      "poker": 9322,
      "iry": 9323,
      "likeable": 9324,
      "canny": 9325,
      "canucks": 9326,
      "oppressed": 9327,
      "mainten": 9328,
      "tee": 9329,
      "tracks": 9330,
      "trinity": 9331,
      "shallow": 9332,
      "conform": 9333,
      "contempt": 9334,
      "condom": 9335,
      "aga": 9336,
      "seeming": 9337,
      "guards": 9338,
      "premi": 9339,
      "premise": 9340,
      "illustr": 9341,
      "roman": 9342,
      "manila": 9343,
      "evange": 9344,
      "idest": 9345,
      "permit": 9346,
      "perform": 9347,
      "inequality": 9348,
      "harassed": 9349,
      "spaper": 9350,
      "affe": 9351,
      "shoulders": 9352,
      "stood": 9353,
      "stocks": 9354,
      "comedi": 9355,
      "newborn": 9356,
      "newspaper": 9357,
      "disingen": 9358,
      "selfie": 9359,
      "overpriced": 9360,
      "realm": 9361,
      "glut": 9362,
      "ruins": 9363,
      "whereas": 9364,
      "mister": 9365,
      "tali": 9366,
      "dull": 9367,
      "waves": 9368,
      "diversity": 9369,
      "dialo": 9370,
      "apping": 9371,
      "shitposting": 9372,
      "kinder": 9373,
      "crunch": 9374,
      "mato": 9375,
      "irline": 9376,
      "nings": 9377,
      "dsj": 9378,
      "angels": 9379,
      "pause": 9380,
[...]
